'<pad>_'
'<EOS>_'
'[CLS]_'
'[SEP]_'
'[MASK]_'
'[UNK]_'
'\u\u\uINDENT\u\u\u_'
'\u\u\uDEDENT\u\u\u_'
'\u\u\uLONGTOKEN\u\u\u_'
'\u\u\uINVALID\u\u\u_'
'\u\u\uNL\u\u\u_'
'\u\u\uNLCHAR\u\u\u_'
'\u\u\uCR\u\u\u_'
'\u\u\uENDMARKER\u\u\u_'
'\u\u\uCARET\u\u\u_'
'\u\u\uNEWLINE\u\u\u_'
' _'
'\u\u\uNEWLINE\u\u\u'
'._'
'(_'
')_'
';_'
',_'
'    _'
'        _'
'{_'
'}_'
'=_'
' ^_'
'  _'
'get^_'
'"^_'
'"_'
'               ^_'
'public_'
'            _'
'import_'
'String_'
'new_'
'return_'
'_'
'^_'
'   _'
'+_'
'if_'
'<_'
'\u^_'
'>_'
'set^_'
'@_'
'      _'
'void_'
'int_'
'this_'
'     _'
'final_'
'private_'
'null_'
'Exception_'
'[_'
']_'
'0_'
'org_'
'static_'
'.^_'
'     ^_'
'List_'
'Name_'
'java_'
'1_'
'com_'
'class_'
'i_'
'\\^_'
'Type_'
'Override_'
'is^_'
'Id_'
'==_'
'assert^_'
':_'
'util_'
'e_'
'to^_'
'Map_'
'Object_'
'!=_'
'boolean_'
'1^_'
'add^_'
'm^_'
'else_'
's_'
'2_'
'-^_'
'Value_'
'\u\u\uEOS\u\u\u_'
'false_'
'throws_'
'-_'
'package_'
'get_'
'true_'
':^_'
'/^_'
'n^_'
's^_'
'add_'
'View_'
'for_'
'Test_'
'2^_'
'          _'
'name_'
'value_'
'test^_'
'Set_'
'File_'
',^_'
'Context_'
'create^_'
'Array^_'
'0^_'
'Builder_'
'Equals_'
'id_'
'android_'
'javax_'
'To^_'
'*_'
'Data^_'
'result_'
'!_'
'on^_'
'protected_'
'a^_'
'&&_'
'Class_'
'Manager_'
'extends_'
'try_'
'File^_'
'new^_'
'catch_'
'Integer_'
'Listener_'
'io_'
'case_'
'length_'
'I^_'
'++_'
'?_'
'put_'
'Data_'
'append_'
'String^_'
'Service_'
'apache_'
'Node_'
'Factory_'
'System_'
'equals_'
'size_'
'super_'
'J^_'
'Text_'
'Message_'
'long_'
'Stream_'
'Path_'
'out_'
'throw_'
'IO^_'
'3_'
'Test^_'
'Utils_'
'Event_'
'R_'
'Type^_'
'Info_'
'double_'
'Key_'
'Not^_'
'x_'
'By^_'
'Element_'
'context_'
'State_'
''^_'
'3^_'
'Text^_'
'(^_'
'model_'
'c_'
'd^_'
'Hash^_'
'=^_'
'       _'
'd_'
'ID_'
'google_'
'data_'
'""_'
'Request_'
'         _'
'T_'
'Size_'
'Code_'
'e^_'
'Item_'
't^_'
'byte_'
'View^_'
'y_'
'a_'
'Date_'
'break_'
'Null_'
'core_'
'Input^_'
'Time_'
'Item^_'
'r_'
'type_'
'User^_'
'Result_'
'||_'
'Field_'
'println_'
'Response_'
'4_'
'Handler_'
'List^_'
't_'
'Layout_'
'Model_'
'Index_'
'Property_'
'Instance_'
'find^_'
'Http^_'
'net_'
'Action^_'
'Time^_'
'has^_'
'Count_'
'Util_'
'Config_'
'Object^_'
'p_'
'On^_'
'Request^_'
'j_'
'current^_'
'Assert_'
'Service^_'
'b_'
'value^_'
'key_'
'x^_'
'Color_'
'Key^_'
'Logger_'
'swing_'
'5_'
'f_'
'Button_'
'Class^_'
'client_'
'user^_'
'id^_'
'Name^_'
'the^_'
'api_'
'event_'
'Long_'
'Value^_'
'Array_'
'float_'
'Of^_'
'o_'
'Group_'
'r^_'
'In^_'
'file^_'
'c^_'
'Group^_'
'n_'
'Message^_'
'lang_'
'For^_'
'"\\^_'
'Default^_'
'request_'
'E^_'
'Field^_'
'index_'
'view_'
'junit_'
'Status_'
'common_'
'4^_'
'."_'
'Of_'
'Int_'
'With^_'
'Id^_'
'implements_'
'And^_'
'b^_'
'name^_'
'read^_'
'instanceof_'
'not^_'
'Event^_'
'Activity_'
'              _'
'Json^_'
'Date^_'
'data^_'
'log_'
'Entity_'
'start^_'
'\\"^_'
'annotation_'
'Output^_'
'f^_'
'∅^_'
'That_'
'message_'
'True_'
'Constants_'
'in^_'
'p^_'
'builder_'
'Image^_'
'Entry_'
'/_'
'j^_'
'Impl_'
'To_'
'check^_'
'Query_'
'Label_'
'Resource^_'
'Panel_'
'type^_'
'Component_'
'm_'
'parse^_'
'X_'
'v_'
'Table^_'
'Boolean_'
'Node^_'
'Configuration_'
'args_'
'Client_'
'Entity^_'
'Method_'
'list_'
'User_'
'Byte^_'
'Action_'
'Adapter_'
'Log_'
'response_'
'From^_'
'Content^_'
'Table_'
'write^_'
'my^_'
'Provider_'
'T^_'
'Set^_'
'l_'
'Attribute_'
'from^_'
'Helper_'
'info_'
'for^_'
'Y_'
'with^_'
'Base^_'
'5^_'
'Abstract^_'
'Empty_'
'Error^_'
'Buffer_'
'Property^_'
'file_'
'A^_'
'Xml^_'
'sb_'
'map_'
'Reader_'
'Query^_'
'+=_'
'Token_'
'as^_'
'i^_'
'Double_'
'node_'
'Model^_'
'input_'
'ing^_'
'key^_'
'y^_'
''_'
'springframework_'
'Resource_'
'update^_'
'o^_'
'text_'
'8_'
'Case_'
'Source_'
'Client^_'
'Writer_'
'while_'
'6_'
'Properties_'
'eclipse_'
'Illegal^_'
'last^_'
'Instance^_'
'm\u^_'
'Simple^_'
'Stack^_'
'max^_'
'Error_'
'item_'
'print^_'
'class^_'
'  ^_'
'logger_'
'Collection_'
'->_'
'content_'
'Format_'
'config_'
'S_'
'No^_'
'awt_'
'next^_'
'Get^_'
'Number_'
'10_'
'of^_'
'path_'
'Address_'
'X^_'
'"/^_'
'State^_'
'build_'
'k_'
'JSON^_'
'C^_'
'format_'
'do^_'
'ex_'
'obj_'
'D_'
'All_'
'Intent_'
'NAME_'
'l^_'
'next_'
'g_'
'Result^_'
')^_'
'close_'
'Connection_'
'set_'
'ed^_'
'values_'
'6^_'
'Filter_'
'Server^_'
'start_'
'http^_'
'All^_'
'Location_'
'rs_'
'list^_'
'Line_'
'query_'
'state_'
'Tree^_'
'Column_'
'Response^_'
'user_'
'Method^_'
'Mode_'
'Servlet^_'
'Log^_'
'Level_'
'default^_'
'Enabled_'
'Width_'
'Block^_'
'Iterator_'
'field^_'
'Element^_'
'7^_'
'7_'
'Thread_'
'test_'
'Types_'
'Argument^_'
'Url_'
'Point_'
'remove^_'
'Web^_'
'text^_'
'Session_'
'Map^_'
'Trace_'
'Column^_'
'in_'
'other_'
'Dialog_'
'Math_'
'entity_'
'Image_'
'Bean_'
'Path^_'
'Stream^_'
'error_'
'Menu^_'
'Is^_'
'Values_'
'Layout^_'
'Local^_'
'and^_'
'Config^_'
'Version_'
'Position_'
'Task_'
'S^_'
'Arrays_'
'Task^_'
'8^_'
'Bundle_'
'index^_'
'Bytes_'
'Parameter_'
'\u_'
'%^_'
'Pane_'
'contains_'
'service_'
'protobuf_'
'Or^_'
'interface_'
'count_'
'Command_'
'Expression_'
'Parser_'
'∅\\^_'
'Index^_'
'Statement_'
'xml_'
'URL_'
'SQL^_'
'>=_'
'<^_'
'url_'
'null^_'
'hash^_'
'sql_'
'Params_'
'Source^_'
'abstract_'
'Names_'
'Application^_'
'\u\u^_'
'parent_'
'Descriptor_'
'end^_'
'Box_'
'msg_'
'Description_'
'app_'
'is_'
'local^_'
'Block_'
'table^_'
'Search^_'
'Click^_'
'Big^_'
'be^_'
'Height_'
'put^_'
'="_'
'Tag_'
'As^_'
'Options_'
'Attribute^_'
'>"_'
'num^_'
'params_'
'create_'
'er_'
'field_'
'error^_'
'Context^_'
'ui_'
'Length_'
'param^_'
'App^_'
'input^_'
'target^_'
'write_'
'Info^_'
'M^_'
'Current^_'
'Change^_'
'System^_'
'A_'
'Access^_'
'Controller_'
'://^_'
'Create^_'
'Reference_'
'Java^_'
'position_'
'string_'
'           _'
'show^_'
'Player_'
'request^_'
'entry_'
'widget_'
'D^_'
'Runtime^_'
'Page^_'
'expected^_'
'Status^_'
'send^_'
'At_'
'Non^_'
'result^_'
'Function_'
'Version^_'
'Settings_'
'debug_'
'Stack_'
'9_'
'Page_'
'server_'
'layout_'
'DEFAULT\u^_'
'With_'
'load^_'
'Grid^_'
'             _'
'{^_'
'buffer_'
'Param_'
';^_'
'[^_'
'Unit_'
'Start^_'
'Dir_'
'com^_'
'Api^_'
')"_'
'&_'
'Command^_'
'",^_'
'v^_'
'    ^_'
'of_'
'target_'
'query^_'
'json^_'
'Repository_'
'source_'
'Loader_'
'New^_'
'ed_'
'ing_'
'Number^_'
'9^_'
'Package_'
'Content_'
'L^_'
'os_'
'Update^_'
'>^_'
'E_'
'Component^_'
'line_'
'Cache^_'
'Fragment_'
'build^_'
'B^_'
'stream_'
'de_'
'Document_'
'Parameter^_'
'<=_'
'Collections_'
'action^_'
'delete^_'
'Rule^_'
'player_'
'Operation^_'
'Holder_'
'SIZE_'
'item^_'
'Code^_'
'URI_'
'P^_'
'g^_'
'Registry_'
'or^_'
'init^_'
'Check^_'
'switch_'
'remove_'
'message^_'
'session_'
'Cache_'
'width_'
'Line^_'
'Fields_'
'w_'
'time^_'
'Job^_'
'z_'
'Dao_'
'element_'
'org^_'
'object_'
'Configuration^_'
'node^_'
'Rule_'
'contains^_'
'Container_'
'Max^_'
'Row_'
'Connection^_'
'res_'
'h_'
'db_'
'               _'
'Pattern_'
'column^_'
'Next_'
'java^_'
'Title_'
'impl_'
'output^_'
'source^_'
'row_'
'Exception^_'
'=\\"^_'
'Parameters_'
'Suppress^_'
'Session^_'
'group^_'
'Buffered^_'
'Invalid^_'
'Meta^_'
'run_'
'Tag^_'
'log^_'
'Definition_'
'"<^_'
'Server_'
'old^_'
'string^_'
'status_'
'Header_'
'height_'
'http_'
'Callback_'
'Null^_'
'int^_'
'iterator_'
'Document^_'
'Linked^_'
'Immutable^_'
'select^_'
'method_'
'table_'
'resource^_'
'instance_'
'ctx_'
'V_'
'content^_'
'Base_'
'L_'
'description_'
'Warnings_'
'Record_'
'ID^_'
'finally_'
'return^_'
'commons_'
'Store_'
'Offset_'
'should^_'
'foo^_'
'My^_'
'all^_'
'first^_'
'Return_'
'Mapping_'
'base^_'
'TAG_'
'From_'
'Int^_'
'Row^_'
'Interface_'
'@^_'
'Vector_'
'base_'
'Metadata_'
'10^_'
'F^_'
':"_'
'Menu_'
'time_'
'Changed_'
'str_'
'Last^_'
'pos_'
'Project^_'
'Target^_'
'listener_'
'Order_'
'event^_'
'Found^_'
'es_'
'}"_'
'utils_'
'service^_'
'Media^_'
'Tree_'
'persistence_'
'Uri_'
'Throwable_'
'json_'
'offset_'
'method^_'
'Nullable_'
'Bar_'
'process^_'
'Pos_'
'execute_'
'S\u^_'
'TYPE\u^_'
'h^_'
'Token^_'
'code_'
'VALUE_'
'Q^_'
'substring_'
'Frame_'
'Calendar_'
'expected_'
'char_'
'G^_'
'image^_'
'web_'
'Body_'
'bind_'
'O^_'
'client^_'
'LOG_'
'default_'
'Filter^_'
'Icon_'
'Process^_'
'register^_'
'Edit^_'
'main_'
'xml^_'
'MAX\u^_'
'action_'
'False_'
'Style_'
'val_'
'Game^_'
'number^_'
'</^_'
'00^_'
'Ref_'
'buf_'
'support_'
'TYPE_'
'er^_'
'it_'
'Input_'
'Items_'
'filter_'
'title_'
'+^_'
'Millis_'
'Pair_'
'annotations_'
'B_'
'Mapper_'
'k^_'
'Project_'
'function^_'
'XML^_'
'server^_'
'output_'
'run^_'
'Port_'
'100_'
'when_'
'able^_'
'date^_'
'factory_'
'writer_'
'Target_'
'min^_'
'synchronized_'
'Execution^_'
'make^_'
'R^_'
'Files_'
'Spec_'
'internal_'
'The^_'
'concurrent_'
'Font_'
'Manager^_'
'search^_'
'Attributes_'
'Order^_'
'no^_'
'Thread^_'
'intent_'
'map^_'
'|_'
'Template_'
'F_'
'options_'
'DB^_'
'parent^_'
'Database^_'
'Bean^_'
'parser_'
'Logger^_'
'clear_'
'execute^_'
'Read^_'
'exception_'
'Start_'
'End^_'
'object^_'
'Criteria_'
'then^_'
'Option_'
'out^_'
'Activity^_'
's\u^_'
'Parse^_'
'Optional_'
'".^_'
'Selected^_'
'Float_'
'github_'
'this^_'
'Decimal_'
'engine_'
'Sub^_'
'reader_'
'root_'
''"_'
';"_'
'Account^_'
'Main^_'
'world_'
'page^_'
'property^_'
'p\u^_'
'Operation_'
'Objects_'
'intellij_'
'code^_'
'Enum^_'
'line^_'
'saved^_'
'max_'
'Str_'
'token_'
'u^_'
'C_'
'Store^_'
'Directory_'
'sub^_'
'Child_'
'Option^_'
'minecraft_'
'Selection^_'
'Range_'
'Queue_'
'Color^_'
'N^_'
'properties_'
'Update_'
'Cell^_'
'Generator_'
'Remote^_'
'Ignore^_'
'entity^_'
'N_'
'Access_'
'Serializable_'
'Button^_'
'servlet_'
'db^_'
'Char^_'
'Dialog^_'
'Add^_'
'*^_'
'|^_'
'Location^_'
'Wrapper_'
'Ids_'
'total^_'
'array_'
'task^_'
'view^_'
'save^_'
'Application_'
'$^_'
'end_'
'app^_'
'Module_'
'Security^_'
'Resources_'
'Create_'
'w^_'
'ret_'
'Package^_'
'response^_'
'path^_'
'security_'
'Custom^_'
'z^_'
'project_'
'date_'
'!"_'
'Container^_'
'domain_'
'If^_'
'Network^_'
'Messages_'
'serial^_'
'Child^_'
'can^_'
'u_'
'able_'
'Unit^_'
'Equal^_'
'URL^_'
'command_'
'First^_'
'Display^_'
'var^_'
'handler_'
'Run^_'
'UI^_'
'row^_'
'parse_'
'init_'
'()^_'
'Form^_'
'20_'
'Root^_'
'short_'
'Mock^_'
'Channel_'
'By_'
'Player^_'
'16_'
'group_'
'Basic^_'
'Entry^_'
'read_'
'UID_'
'KEY\u^_'
'Constraints_'
'connection_'
'Record^_'
'Future_'
'open^_'
'UUID_'
'Function^_'
'Identifier_'
'Handler^_'
'project^_'
'continue_'
'root^_'
'Runnable_'
'mock^_'
'slf4j_'
'Size^_'
'Long^_'
'application^_'
'resource_'
'K_'
'uri_'
'\\":\\"^_'
'Selected_'
'Storage^_'
'Format^_'
'config^_'
'entry^_'
'End_'
'Mouse^_'
'Output_'
'Count^_'
'char^_'
'edu_'
'Psi^_'
'print_'
'convert^_'
'Window_'
'Window^_'
'tag_'
'Sql^_'
'Call^_'
'api^_'
'fail_'
'es^_'
'Obj_'
'use^_'
'12_'
'an^_'
'Unsupported^_'
'Build^_'
'H^_'
'Schema^_'
'handle^_'
'Keys_'
'Transaction_'
'Progress^_'
'Call_'
'Template^_'
'Parent_'
'∅∅^_'
'Next^_'
'V^_'
'Notification^_'
'ch_'
'Schema_'
'equals^_'
'Internal^_'
'count^_'
'\\\\^_'
'Variable_'
'hadoop_'
'collect_'
'Channel^_'
'Parser^_'
'SELECT^_'
'In_'
'Click_'
'Policy_'
'empty^_'
'Y^_'
'job^_'
'draw^_'
'Scroll^_'
'logging_'
'location_'
'update_'
'\\":^_'
'Auto^_'
'label_'
'INSTANCE_'
'from_'
'container_'
'Cell_'
'Header^_'
'status^_'
'Async^_'
'Processor_'
'split_'
'Preferences_'
'model^_'
'min_'
'IS\u^_'
'Expression^_'
'Elements_'
'color_'
'Socket^_'
'selected^_'
'FROM^_'
'Delete^_'
'Bit^_'
'Open^_'
'Module^_'
'order^_'
'generate^_'
'runtime_'
'conn_'
'q_'
'bit^_'
'Json_'
'compare^_'
'task_'
'left_'
'txt^_'
'Label^_'
'Locale_'
'Converter_'
'Num_'
'main^_'
'Device^_'
'Double^_'
'Mock_'
'image_'
'Transaction^_'
'Graph^_'
'Sequence_'
'protocol_'
'"-^_'
'DAO_'
'Resolver_'
'cursor_'
'Bag^_'
'Cursor_'
'>\\^_'
'Val_'
'Before_'
'copy^_'
'src^_'
'Single^_'
'tree_'
'al^_'
'12^_'
'or_'
'Link_'
'on_'
'Provider^_'
'Generic^_'
'parameters_'
'Buffer^_'
'temp^_'
'Enum_'
'current_'
'Reference^_'
'Scope_'
'Common^_'
'Visible_'
'KEY_'
'Report^_'
'configuration_'
'Shared^_'
'Annotation_'
'component_'
'password_'
'true^_'
'element^_'
'Bar^_'
'framework_'
'q^_'
'doc_'
'version^_'
'Load^_'
'Variable^_'
'Part_'
'Auth^_'
'Database_'
'by^_'
'Db^_'
'trim_'
'Matrix_'
'verify_'
'LOGGER_'
'Root_'
'Print^_'
'Form_'
'dao_'
'found^_'
'Msg_'
'block^_'
'::_'
'cache_'
'Product^_'
'..._'
'len_'
'hash_'
'1L_'
'Toast_'
'channel_'
'One^_'
'Empty^_'
'Password_'
'Results_'
'version_'
'Post^_'
'Collection^_'
'11_'
'right_'
'Mockito_'
'child_'
'results_'
'Graph_'
'parameter^_'
'session^_'
'Per^_'
'graphics_'
'thrift_'
'Cluster^_'
'Multi^_'
'Timestamp_'
'Fragment^_'
'Border^_'
'Point^_'
'url^_'
'P_'
'block_'
'Flow^_'
'services_'
'--_'
'child^_'
'11^_'
'Script^_'
'Folder_'
'port_'
'Renderer_'
'Nodes_'
'Category_'
'clear^_'
'Matcher_'
'Short_'
'DTO_'
'Parent^_'
'st_'
'manager_'
'evt_'
'Editor_'
'delete_'
'Out^_'
'cache^_'
'Role^_'
'/"_'
'plugin_'
'Box^_'
'Builder^_'
'Factory^_'
'Link^_'
'insert^_'
'rule^_'
'mock_'
'}^_'
'Area_'
'Protocol^_'
'Bounds_'
'?^_'
'Write^_'
'body_'
'Rest^_'
'str^_'
'filter^_'
'Host^_'
'conf_'
'clazz_'
'temp_'
'Interrupted^_'
'Pool_'
'Performed_'
'Dto_'
'to_'
'1000_'
'property_'
'types_'
'activity_'
'Z^_'
'show_'
'Bitmap_'
'Strategy_'
'Core^_'
'Handle_'
'Random_'
'Dimension_'
'"/"_'
'Plugin^_'
'Visibility_'
'Comparator_'
'Autowired_'
'err_'
'graph_'
'Failed^_'
'btn^_'
'\\",^_'
'settings_'
'editor_'
'Account_'
']"_'
'append^_'
'U^_'
'Chat^_'
'cloud_'
'ref_'
'username_'
'Control^_'
'lib_'
'Byte_'
'bar^_'
'Return^_'
'Annotation^_'
'call_'
'close^_'
'at^_'
'replace^_'
'Feature^_'
'starts^_'
'Role_'
'bytes_'
'<<_'
'left^_'
'beans_'
'Prefix_'
'me_'
'ws_'
'nio_'
'state^_'
'Up_'
'tag^_'
'Executor_'
'controller_'
'Editor^_'
'{}"_'
'Standard^_'
'Z_'
'Columns_'
'address_'
'gl^_'
'01^_'
'Lock_'
'Details_'
'visit^_'
'column_'
'Address^_'
'Tool^_'
'1\u^_'
'items_'
'Login^_'
'param_'
'display^_'
'Api_'
'Num^_'
'Alignment_'
'command^_'
'page_'
'Default_'
'Tile^_'
'post^_'
'Active^_'
'Metadata^_'
're_'
'Atomic^_'
'World_'
'if^_'
'Host_'
'Meta_'
'menu_'
'replace_'
'first_'
'bean_'
'Change_'
'15_'
'instance^_'
'Out_'
'size^_'
'","_'
'array^_'
'Environment_'
'drawable_'
'package^_'
'Plugin_'
'Select^_'
'Definition^_'
'provider_'
'Control_'
'Children_'
'Job_'
'database_'
'must^_'
'Global^_'
'equal^_'
'Operator_'
'Style^_'
'Symbol_'
'Inflater_'
'Min^_'
'   ^_'
'exists_'
'Level^_'
'0.0_'
'Repository^_'
'Lower^_'
'Void_'
'de^_'
'that_'
'Engine_'
'Drawable_'
'Args_'
'dialog_'
'req_'
'Get_'
'format^_'
'Unknown^_'
'attribute^_'
'op_'
'Random^_'
'Field0\u_'
'Edge_'
'tmp^_'
'Tab^_'
'Memory^_'
'title^_'
'Validation^_'
'ion^_'
'Generated^_'
'("_'
'Options^_'
'assert_'
'Inject_'
'Total^_'
'v1_'
'External^_'
'token^_'
'matcher_'
'account^_'
'Var^_'
'Frame^_'
'Duration_'
'player^_'
'Url^_'
'Stats_'
'Check_'
']^_'
'Desc_'
'Consumer_'
'#^_'
'mockito_'
'game_'
'Metrics_'
'one^_'
'prepare^_'
'Member^_'
'html^_'
'store_'
'dir_'
'metadata_'
'After^_'
'feature^_'
'Runner_'
'ng^_'
'Boolean^_'
'Static^_'
'unchecked^_'
'M_'
'I_'
'Selection_'
'D\u^_'
'Def_'
'Condition_'
'random^_'
'Region_'
'level_'
'right^_'
'Headers_'
'public^_'
'cs_'
'br_'
'stack_'
'label^_'
'Border_'
'Validator_'
'namespace_'
'fields_'
'javafx_'
'Has^_'
'API^_'
'gui_'
'button^_'
'%_'
'Pointer^_'
'Binary^_'
'document_'
'Paint_'
'Profile^_'
'Visitor_'
'Adapter^_'
'32_'
'ps_'
'Async_'
'connection^_'
'repository_'
'search_'
'Left_'
'Before^_'
'Profile_'
'match_'
'Debug^_'
'frame_'
'Password^_'
'Socket_'
'other^_'
'Full^_'
'header_'
'change^_'
'Case^_'
'Blocks_'
'Named^_'
'long^_'
'color^_'
'Expr_'
'Properties^_'
'Rect_'
'src_'
'Param^_'
'apply_'
'grid^_'
'Absolute^_'
'elasticsearch_'
'expression_'
'tmp_'
'Extension^_'
'props_'
'',^_'
'move^_'
'Ref^_'
'Settings^_'
'='^_'
'Range^_'
'validate^_'
'where^_'
'was^_'
'Nonnull_'
'NAME\u^_'
'Feature_'
'holder_'
'prefix_'
'adapter_'
'Char_'
'record_'
'attributes_'
'Proxy_'
'menu^_'
'report^_'
'At^_'
'Show^_'
'Join^_'
'Policy^_'
'R\u^_'
'sql^_'
'"[^_'
'enum_'
'save_'
'Timeout_'
'SWT_'
'Character_'
'Only_'
'stop^_'
'Authentication^_'
'clone_'
'Gap_'
'{"_'
'callback_'
'jackson_'
'exception^_'
'www^_'
'"</^_'
'Extra_'
'call^_'
'ion_'
'function_'
'Integer^_'
'actual_'
'col_'
'K^_'
'Combo^_'
'verify^_'
'col^_'
'Match_'
'Up^_'
'Predicate_'
'case^_'
'Down_'
'Counter_'
'Port^_'
'ERROR_'
'Virtual^_'
''∅'_'
'NOT\u^_'
'access^_'
'Preference^_'
'schema_'
'Use^_'
'jj\u^_'
'host_'
'30_'
'host^_'
'ID\u^_'
'warn_'
'50_'
'Support_'
'        ^_'
'Binding_'
'Doc^_'
'al_'
'jboss_'
'wait^_'
'T\u^_'
'tools_'
'FIELD\u^_'
'field\u^_'
'Card^_'
'merge^_'
'any^_'
'Packet_'
'Interval_'
'Domain^_'
'C\u^_'
'byte^_'
'E\u^_'
'Permission_'
'Expected^_'
'ACTION\u^_'
'cur^_'
'actual^_'
'png^_'
'Serializer_'
'matches_'
'Direction_'
'Member_'
'Protocol_'
'Pool^_'
'double^_'
'num_'
'product^_'
'VO_'
'World^_'
'20^_'
'Background_'
'models_'
'Endpoint^_'
'Panel^_'
'failed^_'
'context^_'
'module_'
'import^_'
'Proxy^_'
'Step_'
'13_'
'native_'
'Device_'
'number_'
'No_'
'WHERE^_'
'Such^_'
'load_'
'First_'
'random_'
'stmt_'
'resources_'
'NO\u^_'
'bukkit_'
'"'^_'
'Down^_'
'App_'
'device^_'
'PREFERRED\u^_'
'Extension_'
'14_'
'process_'
'as_'
'TEST\u^_'
'Category^_'
'Vertex_'
'Term_'
'Kind_'
'nodes_'
'"%^_'
'top^_'
'Queue^_'
'dom_'
'Audio^_'
'"."_'
'One_'
'arg_'
'Linear^_'
'Events_'
'original^_'
'accept_'
'doc^_'
'1.0_'
'JSON_'
'Icon^_'
'mode_'
'000^_'
'Success_'
'\\""_'
'false^_'
'match^_'
'notify^_'
'Font^_'
'inject_'
'role^_'
'Alert^_'
'Save^_'
'Valid^_'
'Matchers_'
'&^_'
'Flag_'
'extension^_'
'cluster^_'
'raw^_'
'{\\^_'
'active^_'
'STRING_'
'Region^_'
'Preferred^_'
'Constant_'
'filename_'
'Paths_'
'idx_'
'store^_'
'edit^_'
'module^_'
'Amount_'
'ly^_'
'reflect_'
'en^_'
'Sequence^_'
'copy_'
'remote^_'
'Accessor^_'
'Step^_'
'Receiver_'
'game^_'
'email_'
'Match^_'
'Raw^_'
'events_'
'password^_'
'"\u^_'
'Material_'
'template_'
'Admin^_'
'iter_'
'example_'
'ts_'
'Language^_'
'      ^_'
'it^_'
'Endpoint_'
'meta^_'
'web^_'
'Arguments_'
'component^_'
'Left^_'
'in\u^_'
'Widget_'
'header^_'
'Person_'
'COLUMN\u^_'
'math_'
'system^_'
'200_'
'Email_'
'Storage_'
'initial^_'
'Points_'
'><^_'
'Batch^_'
'"∅∅"_'
'keys_'
'0L_'
'Iterable_'
'Zone_'
'template^_'
'Interface^_'
'login^_'
'have^_'
';\\^_'
'record^_'
'form^_'
'31_'
'Right_'
'gwt_'
'jspx\u^_'
'Valid_'
'Layer_'
'fs_'
'18_'
'are^_'
'2\u^_'
'fasterxml_'
'Position^_'
'Builder\u_'
'Background^_'
'Report_'
'database^_'
'NONE_'
'AS^_'
'job_'
'Only^_'
'amazonaws_'
'schema^_'
'compute^_'
'I\u^_'
'Registry^_'
'60_'
'custom^_'
'info^_'
'Listener^_'
'Top^_'
'success_'
'location^_'
'Utilities_'
'env_'
'")"_'
'Spring^_'
'Rate_'
'order_'
'Body^_'
'mouse^_'
'openapi_'
'pattern_'
'Process_'
'le_'
'cmd_'
'Mapping^_'
'Observer_'
'files_'
'world^_'
'Executor^_'
'Agent^_'
'ng_'
'Notification_'
'te_'
'Build_'
'cause_'
'Scanner_'
'Right^_'
'Primary^_'
'thread^_'
'Recycler^_'
'children_'
'This^_'
'":^_'
'Progress_'
'Selector_'
'W^_'
'msg^_'
'Score_'
'Lists_'
'Tags_'
'Present_'
'panel_'
'fr_'
'descriptor_'
'Language_'
'stop_'
'Rows_'
'link^_'
'Contact^_'
'transform_'
'Read_'
'created^_'
'Namespace_'
'cannot^_'
'Strings_'
'Sample^_'
'Max_'
'document^_'
'full^_'
'statement_'
'Game_'
'scene_'
'Cloud^_'
'begin^_'
'Import^_'
'join_'
'255_'
'elements_'
'Engine^_'
'stream^_'
'Driver^_'
'required_'
'Domain_'
'Ui^_'
'after^_'
'O_'
'valid^_'
'Classes_'
'Constructor_'
'Main_'
'Criterion_'
'lock_'
'Formatter_'
'GET_'
'More^_'
'port^_'
'Contents_'
'rest_'
'16^_'
'Timer_'
'OK_'
'network_'
'Parallel^_'
'arg0_'
'Render^_'
'internal^_'
'For_'
'Screen^_'
'14^_'
'button_'
'Title^_'
'ref^_'
'Limit_'
'dto_'
'swt_'
'Public^_'
'Sync^_'
'∅"_'
'13^_'
'Argument_'
'Display_'
'	^_'
'prop^_'
'Observable_'
'apply^_'
'gson_'
'Permission^_'
'FOLLOW\u^_'
'ds_'
'Unique^_'
'Comment_'
'se_'
'find_'
'us_'
'Search_'
'Statement^_'
'"(^_'
'attrs_'
'Trace^_'
'`^_'
'form_'
'names_'
'"}"_'
'non^_'
'fill^_'
'desc_'
'check_'
'Send^_'
'Tab_'
'FILE\u^_'
'Op_'
'Packet^_'
'required^_'
'unit_'
'Flags_'
'now_'
'font^_'
'Video^_'
'meta_'
'pos^_'
'Card_'
'commit_'
'facebook_'
'sleep_'
'DB_'
'invoke_'
'Day^_'
'properties^_'
'reset^_'
'24_'
'Screen_'
'Float^_'
'Metric^_'
'sort^_'
'auth^_'
'USER\u^_'
'Declaration_'
'Native^_'
'Mode^_'
'storage_'
'Space_'
'sender_'
'Inet^_'
'M\u^_'
'Concurrent^_'
'Groups_'
'After_'
'Product_'
'Foo^_'
'UI_'
'runner_'
'enable^_'
'sun_'
'Remove^_'
'attribute_'
'application_'
'TO\u^_'
'scale_'
'History^_'
'lang^_'
'registry_'
'Rectangle_'
'Prepared^_'
'Driver_'
'"∅∅∅∅∅∅∅∅"_'
'var_'
'Sort^_'
'"\\"^_'
'stack^_'
'Serialized^_'
'":"_'
'io^_'
'Dynamic^_'
'Email^_'
'sort_'
'delegate_'
'AND^_'
'any_'
'Route^_'
'PATH_'
's2_'
'Username_'
'["_'
'Android^_'
'helper_'
'reset_'
'control_'
'second^_'
'Animation_'
'Be^_'
'Plan^_'
'eq_'
'when^_'
'Texture^_'
'JAXB^_'
'Short^_'
'Directory^_'
'"/**^_'
'final^_'
'sum_'
'handle_'
'TABLE\u^_'
'Hash_'
'em_'
'spi_'
'OF\u^_'
'mapper_'
'con_'
'bundle_'
'Listeners_'
'canvas_'
'trace_'
'email^_'
'tree^_'
'sf_'
'headers_'
'Binding^_'
'Partition^_'
',"_'
'fire^_'
'lbl^_'
'rule_'
'Work^_'
'Detail^_'
'ble_'
'cell^_'
'Doc_'
'driver_'
'GL\u^_'
'64_'
'Description^_'
'Bundle^_'
'channel^_'
'Methods_'
'body^_'
'Collectors_'
'Creator_'
'0\u^_'
'le^_'
'Person^_'
'os^_'
'0x00_'
'address^_'
'\\",\\"^_'
'limit_'
'('^_'
'Move^_'
'register_'
'at_'
'point_'
'https^_'
'setup^_'
'scope_'
'queue_'
'Chain_'
'd\u^_'
'dest_'
'def^_'
'Var_'
'link_'
'URI^_'
'values^_'
'Errors_'
'Vertex^_'
'struct_'
'before^_'
'Entries_'
'fragment_'
'description^_'
'Price_'
'Bytes^_'
'admin^_'
'Upper^_'
'Values^_'
'owner_'
'Literal_'
'te^_'
'entities_'
'ar_'
'cell_'
'Relative^_'
'ED_'
'get\u^_'
'Shape_'
'func\u^_'
'Uri^_'
'account_'
'top_'
's1_'
'Information_'
'ble^_'
'Invocation^_'
'PREFIX_'
'Word_'
'Msg^_'
'ERROR\u^_'
'Download^_'
'?"_'
'25_'
'v4_'
'Encoder_'
'15^_'
'tab^_'
'VERSION_'
'Lock^_'
'Folder^_'
'style_'
'Owner_'
'Runtime_'
'Each_'
'Actions_'
'Controller^_'
'ends^_'
'render^_'
'auto^_'
'emf_'
'unknown^_'
'..."_'
'exceptions_'
'Agent_'
'Close^_'
'components_'
''\\^_'
'Management^_'
'media^_'
'Pattern^_'
'Edge^_'
'Encoding^_'
'Support^_'
'visit_'
'U_'
'post_'
'Composite_'
'Active_'
'insert_'
'eu_'
'report_'
'ED\u^_'
'Missing^_'
'box_'
'us^_'
'Lines_'
'rows_'
'do_'
'Detail_'
'obj^_'
'*/^_'
'Local_'
'Proto_'
'invalid^_'
'001^_'
'primary^_'
'Preconditions_'
'Constraint_'
'Scale_'
'UTF^_'
'open_'
'Conf_'
'Word^_'
'progress^_'
'validate_'
'API_'
'res^_'
'Timeout^_'
'Changed^_'
'Uuid_'
'resolve^_'
'container^_'
'Identity^_'
'Topic^_'
'e1_'
'v2_'
'Ptr_'
'Part^_'
'icon_'
'Term^_'
'G_'
'lines_'
'"]"_'
'Refresh^_'
'plugin^_'
'sample^_'
'push^_'
'On_'
'co_'
'mapping_'
'Lite^_'
'simple^_'
'02^_'
'Syntax^_'
'Horizontal^_'
'].[^_'
'Payment^_'
'flags_'
'e\u^_'
'Assertions_'
'Mutable^_'
'attr_'
'execution^_'
'Math^_'
'timeout_'
'hibernate_'
'messages_'
'Monitor_'
'Section_'
'net^_'
'MIN\u^_'
'Gui^_'
'Operator^_'
'"#^_'
'Bitmap^_'
'Stop^_'
'Services_'
'Mod^_'
'DATA\u^_'
'st^_'
'Ip^_'
'Supplier_'
'APPLICATION\u^_'
'Sorted^_'
'sdk_'
'range_'
'Radio^_'
'Google^_'
'that^_'
'Scheme_'
'Back^_'
'Preference_'
'COUNT_'
'interfaces_'
'counter_'
'Post_'
'Pointer_'
'join^_'
'Decimal^_'
'cluster_'
'flush_'
'refresh^_'
'Pre^_'
'Delete_'
'ast_'
'does^_'
'Idx_'
'transaction_'
'td^_'
'require^_'
'prime_'
'dir^_'
'Axis^_'
'arguments_'
'Cluster_'
'flag_'
'Can^_'
'Script_'
'timestamp_'
'SQ^_'
'Details^_'
'window^_'
'Signature_'
'Descriptors_'
'expr_'
'example^_'
'ns_'
'Pending^_'
'icon^_'
'jetbrains_'
'Components_'
'{}^_'
'network^_'
'Period_'
'compare_'
'NULL^_'
'ON\u^_'
'DEFAULT_'
'ar^_'
'exit^_'
'"'"_'
'Cannot^_'
'32^_'
'IN\u^_'
'ING\u^_'
'admin_'
'H_'
'Segment_'
'Tuple_'
'Copy^_'
'17_'
'Distance_'
'ns^_'
'Bind^_'
'arg^_'
'40_'
'previous^_'
'et^_'
'plugins_'
'jar^_'
'Delegate_'
'Business^_'
'Html^_'
'ms^_'
'Focus^_'
'abs_'
'Stage_'
'locale_'
'Dir^_'
'Files^_'
'Copy_'
'domain^_'
'bytes^_'
'hamcrest_'
'frame^_'
'shared_'
'columns_'
'Locator_'
'separator_'
'ret^_'
'Customer^_'
'-=_'
'"{^_'
'category_'
'async^_'
'Day_'
'regex_'
'Alias_'
'Find^_'
'Sender_'
'compile_'
'Y\u^_'
'configuration^_'
'LENGTH\u^_'
'PROPERTY\u^_'
'select_'
'Op^_'
'STATE\u^_'
'Should^_'
'Len_'
'}\\^_'
'send_'
'Offset^_'
'pre^_'
'Protos_'
'global^_'
'html_'
'Upload^_'
'arr_'
'Tests_'
'ac_'
'variable^_'
'amount_'
'Callable_'
'Tools_'
'extract^_'
'Failure_'
'upper^_'
'Widget^_'
'),^_'
'Fixed^_'
're^_'
'Master^_'
'></^_'
'CENTER_'
'storage^_'
'Stats^_'
'Net^_'
'Private^_'
'Initialized_'
'tokens_'
'Variables_'
'Add_'
'condition_'
'errors_'
'Marshaller_'
'ER\u^_'
'Gen^_'
'|=_'
'category^_'
'Servlet_'
'Summary_'
'Home^_'
'p1_'
'Descriptor^_'
'Presenter_'
'short^_'
'Geo^_'
'empty_'
'Scale^_'
'Init^_'
'v7_'
'Binder_'
'4j_'
'()"_'
'invoke^_'
'member^_'
'script^_'
'W_'
'boolean^_'
'Chooser_'
'up^_'
'Arg_'
'Matrix^_'
'Connector_'
'Same_'
'Required^_'
'ers_'
'Motion^_'
'Segment^_'
'ui^_'
'Popup^_'
'supported^_'
'tags_'
'operation^_'
'Touch^_'
'parameter_'
'gen_'
'include^_'
'transaction^_'
'Modifier_'
'bind^_'
'resp_'
'auth_'
'inflate_'
'curr^_'
'Bad^_'
'Min_'
'layout^_'
'"∅"_'
'Contract_'
'collection_'
'try^_'
'inflater_'
'executor_'
'Export^_'
'AST^_'
'Transform_'
'Texture_'
'reference^_'
'"&^_'
'operation_'
'img^_'
'Comment^_'
'Do^_'
'ss_'
'et_'
'grammar^_'
'rs^_'
'term^_'
'Temp^_'
'Inner_'
'tx_'
'test\u^_'
'queue^_'
'ca_'
'op^_'
'ids_'
'actions_'
'commands_'
'Buf_'
'static^_'
'Character^_'
'security^_'
'SQL_'
'tion^_'
'Dao^_'
'ce_'
'30^_'
'Tuple^_'
'Rate^_'
'Year_'
'Top_'
'bean^_'
'FIELD_'
'XML_'
'criteria_'
'en_'
'lombok_'
'Tokens_'
'length^_'
'loader_'
'A\u^_'
'cn_'
'y\u^_'
'Length^_'
'nt^_'
'Slot_'
'cal_'
'log4j_'
'kernel_'
'ip^_'
'Sets_'
'while^_'
'Area^_'
'Inventory_'
'Platform^_'
'uk_'
'ok_'
'Subject_'
'Persistence^_'
'Recognition^_'
'P\u^_'
'Constraint^_'
'attr^_'
'point^_'
'ip_'
'Any^_'
'Separator_'
'socket_'
'ensure^_'
'exit_'
'23_'
'objects_'
'Space^_'
'Memory_'
'Book^_'
'Priority_'
'Setting_'
'step_'
'Typed^_'
'Res_'
'Exists_'
'fetch^_'
'offset^_'
'MESSAGE_'
'SAX^_'
'rules_'
'21_'
'range^_'
'Processing^_'
'Site^_'
'exec_'
'Loader^_'
'Tracker_'
'retval_'
'head_'
'Scan^_'
'platform_'
'Plan_'
'Power^_'
'Attr_'
'Side_'
'render_'
'Vertical^_'
'Internal_'
'compiler_'
'Tool_'
'visitor_'
'dispose_'
'google^_'
'Constant^_'
'Completion^_'
'Zip^_'
'Visible^_'
'uri^_'
'Mail^_'
'Features_'
'3\u^_'
'When^_'
'enter^_'
'Equal_'
'prev^_'
'Namespace^_'
'word_'
'Collector_'
'Graphics_'
'unit^_'
'Condition^_'
'binding_'
'NOT^_'
'core^_'
'inner^_'
'annotation^_'
'points_'
'stats_'
'Types^_'
'Workflow^_'
'times_'
'style^_'
'dd^_'
'connect_'
'proxy_'
'dest^_'
'single^_'
'widgets_'
'option^_'
'enabled_'
'Swing^_'
'level^_'
'only^_'
'device_'
'will^_'
'matrix_'
'Transport^_'
'proto_'
'Sensor^_'
'Authorization^_'
'split^_'
'Reader^_'
'Initial^_'
'profile^_'
'Composite^_'
'Tile_'
'Factor_'
'Chart^_'
'Without^_'
'generator_'
'Artifact^_'
'initialize_'
'Measure^_'
'Grid_'
'Transfer^_'
'Library^_'
'Usage^_'
'Run_'
'validation_'
'Compat_'
'nl_'
'Viewer_'
'testng_'
'22^_'
'Getter_'
'Rules_'
'sc_'
'uuid_'
'Unable^_'
'ation^_'
'Two^_'
'Canvas_'
'subject_'
'Marker_'
'Asset^_'
'100^_'
'buffer^_'
'Required_'
'some^_'
'History_'
'Deprecated_'
'resolve_'
'19_'
'parts_'
'Ad^_'
'work^_'
'Core_'
'tile^_'
'Props_'
'Failure^_'
'ext_'
'ss^_'
'scroll^_'
'width^_'
'1\u_'
'General^_'
'Animation^_'
'screen^_'
'Drop^_'
'Operations_'
'Cause_'
'total_'
'role_'
'Primitive^_'
'position^_'
'Vector^_'
'LOG\u^_'
'entries_'
'Supported^_'
'prop_'
'Split^_'
'portal_'
'Layer^_'
'packet_'
'el_'
'Fetch^_'
'VALUE\u^_'
'graph^_'
'22_'
'cancel^_'
'you^_'
'Created^_'
'proxy^_'
'available^_'
'Real^_'
'selection^_'
'CU^_'
'wso2_'
'Found_'
'android^_'
'board_'
'jdbc^_'
'Complete_'
'comment_'
'Zone^_'
'Statistics_'
'Span_'
'float^_'
'Stroke_'
'files^_'
'batch^_'
'duration_'
'V3_'
't\u^_'
'Register^_'
'script_'
'partition^_'
'monitor_'
'msgs_'
'Bus_'
'stereotype_'
'rest^_'
'LINE\u^_'
'edit_'
'Weight_'
'Hello^_'
'calculate^_'
'Annotations_'
'Multiple^_'
'step^_'
'score_'
'Permissions_'
'N\u^_'
'loc_'
'Rpc^_'
'metadata^_'
'div^_'
'lock^_'
'ignore^_'
'updated^_'
'renderer_'
'='"_'
'Spec^_'
'protocol^_'
'VISIBLE_'
'login_'
'1024_'
'arg1_'
'netty_'
'Jdbc^_'
'NUMBER_'
'psi_'
'spec_'
'gdx_'
'TIME_'
'Generated_'
'allow^_'
'pm_'
'provider^_'
'processor_'
'Camera^_'
'Snapshot^_'
'\u"_'
'basic^_'
'!^_'
'Clause_'
'decode^_'
'Times_'
'comment^_'
'tion_'
'metrics_'
'Play^_'
'nt_'
'Seconds_'
'activity^_'
'Certificate^_'
'cancel_'
'shared^_'
'Pressed_'
'Price^_'
'Checker_'
'Blank_'
'grid_'
'badlogic_'
'customer^_'
'language_'
'Subscription^_'
'Transformer_'
'liferay_'
'Same^_'
'Could^_'
'Execution_'
'"--^_'
'flow^_'
'25^_'
'Algorithm^_'
'Parameters^_'
'Processor^_'
'c\u^_'
'Encoding_'
'Y'
'Bits_'
'Complex^_'
'Login_'
'Enable^_'
'Transition_'
'Super^_'
'region_'
'Charset_'
'groups_'
'Writable_'
'se^_'
'Select_'
'Network_'
'constructor^_'
'21^_'
'p2_'
'hbase_'
'Topic_'
'Insert^_'
'Phone^_'
'window_'
'Items^_'
'external^_'
'day^_'
'Based^_'
'axis_'
'scale^_'
'New_'
'camel_'
'profile_'
'23^_'
'last_'
'CONTENT\u^_'
'Utility_'
'PARSER_'
'cached^_'
'0.0f_'
'Created_'
'Pos^_'
'localhost^_'
'Disk^_'
'Credentials_'
'TAG\u^_'
'topic^_'
'Connector^_'
'IO_'
'debug^_'
'finish_'
'but^_'
'Extended^_'
'"-"_'
'Creation^_'
'convert_'
'extension_'
'Tokenizer_'
'um_'
'Move_'
'done_'
'Results^_'
'region^_'
'17^_'
'export^_'
'FILE_'
'Checked_'
'INFO_'
'Depth_'
'Compat^_'
'payload_'
'JS^_'
'Generator^_'
'Dependency^_'
'Inventory^_'
'void^_'
'push_'
'Course^_'
'display_'
'cc_'
'MAP_'
'ce^_'
'Debug_'
'Tasks_'
'used^_'
'Drawer^_'
'go^_'
'500_'
'internal\u^_'
'native^_'
'static\u^_'
'private^_'
'ms_'
'Deployment^_'
'VERSION\u^_'
'LA_'
'Assignment_'
'Finder_'
'Connect^_'
's\u_'
'DEBUG_'
'L\u^_'
'States_'
'Algorithm_'
'Other^_'
'resources^_'
'Identity_'
'Declared^_'
'Available^_'
'Compound_'
'Side^_'
'Sql_'
'Instances_'
'INT_'
'Sequential^_'
'super^_'
'r\u^_'
'NAME^_'
'Batch_'
'57^_'
'upload^_'
'calendar_'
'Xml_'
'Month_'
'exec^_'
'selection_'
'SSL^_'
'ru_'
'initialize^_'
'collection^_'
'control^_'
'LEADING_'
'site^_'
'Latch_'
'existing^_'
'Decoder_'
'img_'
'bs_'
'expect_'
'Interval^_'
'Users_'
'option_'
'Environment^_'
'already^_'
'Symbol^_'
'encode_'
'Insets_'
'FLAG\u^_'
'Callback^_'
'center^_'
'i1_'
'Keyword_'
'word^_'
'POST_'
'Col_'
'Literal^_'
'listeners_'
'MSG\u^_'
'"{\\"^_'
'directory_'
'real^_'
'Bound_'
'Payload_'
'Suite_'
'inventory_'
'repository^_'
'Views_'
'34^_'
'Total_'
'shape_'
'pl_'
'strategy_'
'ment^_'
'REQUEST\u^_'
'common^_'
'comp_'
'feature_'
')\\^_'
'addr_'
'1.0f_'
'Dataset_'
'reference_'
'EMPTY\u^_'
'tasks_'
'Lookup^_'
'Axis_'
'00_'
'directory^_'
'Library_'
'Platform_'
'Remove_'
'Signature^_'
'Instruction_'
'encode^_'
'LEFT_'
'Filename_'
'fill_'
'Machine^_'
'Managed^_'
'Snapshot_'
'Animator_'
'Structure^_'
'Many^_'
'constraints_'
'123^_'
'Scope^_'
'username^_'
'L11_'
'Labels_'
':\\^_'
'unique^_'
'delta_'
'04^_'
'part^_'
'found_'
'Chunk_'
'charset_'
'Ignore_'
'product_'
'person^_'
'/{^_'
'TABLE^_'
'direction_'
'WIDTH_'
'Timer^_'
'Volume^_'
'Score^_'
'DATE_'
'TEXT\u^_'
'MODE\u^_'
'Calendar^_'
'no_'
'interface^_'
'Consumer^_'
'Tip^_'
'ING_'
'STATUS\u^_'
'Intent^_'
'Push^_'
'Analysis^_'
'Env_'
'Coord_'
'folder^_'
've^_'
'system_'
'Inner^_'
'ta_'
'height^_'
'DOM^_'
'Contact_'
'o1_'
'home^_'
'Shape^_'
'cb_'
'Interceptor_'
'agent^_'
'Speed_'
'br^_'
'Chunk^_'
'def_'
'INVALID\u^_'
'Expr^_'
'Enumeration_'
'Switch^_'
'download^_'
'panel^_'
'artifact^_'
'Free^_'
'yyyy^_'
'Structure_'
'Center^_'
'SHORT_'
'identifier_'
'gl_'
'Navigation^_'
'Principal_'
'singleton^_'
'activity\u^_'
'skip^_'
'Mime^_'
'Open_'
'up_'
'GONE_'
'CLASS\u^_'
'second_'
'operator_'
'connect^_'
'Stop_'
'TIME\u^_'
'Q_'
'media_'
');"_'
'thread_'
'Mask_'
'expect^_'
'methods_'
'Metric_'
'ty_'
'Ex_'
'Answer_'
'distance_'
'Spinner_'
'Program^_'
'Series^_'
'Col^_'
'Example^_'
'CODE_'
'Bluetooth^_'
'namespace^_'
'video^_'
'val^_'
'failed_'
'js^_'
'0F_'
'converter_'
'EXTRA\u^_'
'go_'
'Attributes^_'
'el^_'
'Available_'
'Elements^_'
'endpoint_'
'bounds_'
'Init_'
'modules_'
'Worker^_'
'Series_'
'exp_'
'progress_'
'tenant^_'
'users_'
'zip^_'
'Center_'
'ies_'
'Loading^_'
'05^_'
'You^_'
'validator_'
'X\u^_'
'Logging^_'
'set\u^_'
'ic^_'
'master^_'
'Feed^_'
'Codes_'
'Artifact_'
'sum^_'
'Vm^_'
'throw^_'
'Note_'
'o2_'
'Logical^_'
'            ^_'
'Def^_'
'Direct^_'
'err^_'
'Singleton_'
'MESSAGE\u^_'
'Qualified^_'
'back^_'
'24^_'
't1_'
'Equals^_'
'MM^_'
'Identifier^_'
'64^_'
'span^_'
'"\\\\^_'
'year_'
'Sdk^_'
'cls_'
'Ms_'
'vo_'
'part_'
'Nested^_'
'th\u^_'
'Assertion^_'
'Note^_'
'Effect_'
'ment_'
'Audit^_'
'pt_'
'Z'
'aws^_'
'Recipe_'
'ls_'
'card^_'
'flink_'
'sync^_'
'50^_'
'Impl^_'
'Setting^_'
'Ctx_'
'Schedule^_'
'Merge^_'
'gov_'
'drop^_'
'tests_'
'Camera_'
'gen^_'
'Hibernate^_'
'Modified_'
'pi_'
'mark^_'
'play^_'
'release^_'
'LIST_'
'03^_'
'PARAM\u^_'
'sample_'
'Complete^_'
'0f_'
'TO_'
'pool_'
'Flow_'
'Material^_'
'NBT^_'
'Const_'
'ai_'
'animation_'
'bitmap_'
'Pager_'
'Fast^_'
'Git^_'
'Put^_'
'sp_'
'Sort_'
'∅_'
'book^_'
'Assignment^_'
'"\\""_'
'Util^_'
'Obj^_'
'lookup^_'
'K\u^_'
'cast^_'
'Capacity_'
'Scene_'
'pw_'
'Sys^_'
'Room^_'
'Last_'
'draw_'
'ation_'
'Help^_'
'O\u^_'
'ch^_'
'Pipeline^_'
'extra^_'
'Stmt_'
'Compound^_'
'destination^_'
'member_'
'Parcel_'
'ON^_'
'background^_'
'Records_'
'Slot^_'
'Track^_'
'Theme_'
'age_'
'Malformed^_'
'all_'
'owner^_'
'hello^_'
'Book_'
'Mongo^_'
'settings^_'
'GET\u^_'
'Fields^_'
'Hex^_'
'Admin_'
'enum^_'
'IP^_'
'Cached^_'
'Stub_'
'expression^_'
'Relation_'
'Terminal^_'
'Jar^_'
'paint_'
'Edit_'
'TRUE_'
'Secret^_'
'contact^_'
'Delay_'
'rand_'
'x1_'
'Db_'
'Usage_'
'Focus_'
'Maps_'
'prefs_'
'lucene_'
'Write_'
'tv^_'
'management_'
'Blocking^_'
'Scheduled^_'
'DATA_'
'kind_'
'Broadcast^_'
'cfg_'
'self_'
'notification^_'
'LONG_'
'batch_'
'1f_'
'w3c_'
'to\u^_'
'RIGHT_'
'Accessor_'
'an_'
'transport_'
'Commit^_'
'80_'
'opendaylight_'
'Entities_'
'Lite_'
'exchange_'
'Dispatcher_'
'library_'
'phone^_'
'SERVICE\u^_'
'Program_'
'ne_'
',\\"^_'
'Pull^_'
'Dictionary_'
'Ds_'
'Section^_'
'tool^_'
'agent_'
'"@^_'
'Reason_'
'language^_'
'Py^_'
'Js^_'
'Units_'
'Share^_'
'∅'
'tr_'
'SERVICE_'
'argument^_'
'complete^_'
'Board_'
'.\\^_'
'age^_'
'Cost_'
'Users^_'
'DAO^_'
'radius_'
'Peer^_'
'parsed^_'
'Attachment_'
'LENGTH_'
'da^_'
'Hashtable_'
'selected_'
'missing^_'
'BY^_'
'metric^_'
'Transactional_'
'tr^_'
'Facade_'
'c1_'
'Hive^_'
'ALL_'
'Actor_'
'flow_'
'folder_'
'SERVER\u^_'
'mm^_'
'boot_'
'ad^_'
'Functions_'
'answer_'
'Infos_'
'Console^_'
'help^_'
'Radius_'
'ry^_'
'SEVERE_'
'destination_'
'Names^_'
'Ip_'
'Summary^_'
'edge_'
'Cancel^_'
'Writer^_'
'START\u^_'
'notification_'
'dialog^_'
'commit^_'
'me^_'
'Bucket^_'
'jupiter_'
'CLASS_'
'environment_'
'mail^_'
'arraycopy_'
'diff_'
'Limit^_'
'unused^_'
'exist^_'
'Metrics^_'
'fail^_'
'one_'
'ic_'
'exp^_'
'opt^_'
'SUCCESS_'
'Optional^_'
'Route_'
'mode^_'
'Register_'
'26_'
'decode_'
'Modified^_'
'Gson_'
'Comparison_'
'Prefix^_'
',\\^_'
'Sum_'
'alias_'
'multi^_'
'tool_'
'topic_'
'Retry^_'
'Placement_'
'where_'
'0.5_'
'Load_'
'ia_'
'Extractor_'
'Safe^_'
'round_'
'selenium_'
'Producer_'
'cmd^_'
'Tables_'
'font_'
'two^_'
'Mod_'
'oprot_'
'Sign^_'
'allowed^_'
'"//^_'
'layer_'
'Execute_'
'0xff_'
'edge^_'
'NULL_'
'Registration^_'
'Surface^_'
'Period^_'
'binary^_'
'Dimension^_'
'AST_'
'alpha_'
'Na^_'
'==^_'
'ry_'
'scan^_'
'-"_'
'zz^_'
'Draw^_'
'Addr_'
'Exp_'
'ent_'
'begin_'
'Codec_'
'42_'
'ly_'
'vector_'
'Than^_'
'TEXT_'
'off_'
'Filters_'
'cl_'
'->^_'
'volatile_'
'Back_'
'Res^_'
'EVENT\u^_'
'Dummy^_'
'person_'
'future_'
'stage_'
'alert^_'
'pair_'
'ions_'
'ignite_'
'perform^_'
'ts^_'
'vm_'
'evaluate_'
'box^_'
'rt_'
'Coded^_'
'Mgr_'
'PROP\u^_'
'bb_'
'Scheduler_'
'been^_'
'switch^_'
'Angle_'
'VALUES^_'
'Closed_'
'28_'
'Generation^_'
'Timestamp^_'
'sonar_'
'rect_'
'day_'
'Stat_'
'audio^_'
'Colors_'
'ge^_'
'vm^_'
'Describe^_'
'Relation^_'
'VK\u^_'
'Checked^_'
'Bounds^_'
'Compilation^_'
'0xFF_'
'jface_'
'dst^_'
'wicket_'
'Roles_'
'Arg^_'
'chart_'
'classes_'
'Information^_'
'Sheet_'
'setup_'
'scanner_'
'users^_'
'4\u^_'
'Instant_'
'01_'
'HTTP^_'
'th_'
'Cmd_'
'Specification_'
'eval_'
'lookup_'
'analysis_'
'apache^_'
'before_'
'Orientation_'
'IN^_'
'th^_'
'timestamp^_'
'Example_'
'schedule^_'
'"$^_'
'Old^_'
'EMPTY_'
'Hint_'
'Rel^_'
'Persistent^_'
'Retention^_'
'Amazon^_'
'Compiler^_'
'bar_'
'alias^_'
'Mapper^_'
'codec_'
'Sound^_'
'same^_'
'Numeric^_'
'Owner^_'
'y1_'
'Canonical^_'
'Threshold_'
'Arr_'
'vaadin_'
'integer^_'
'Locale^_'
'grpc_'
'e2_'
'Struct^_'
'pop_'
'Converter^_'
'pipeline_'
'ok^_'
'disable^_'
'la^_'
'UP_'
'Chart_'
'lib^_'
'success^_'
'Q'
'price_'
'Maven^_'
'force^_'
'Pair^_'
'program_'
'Stat^_'
'Btn_'
'term_'
'Events^_'
'tab_'
'pattern^_'
'Decl_'
'consumer_'
'fml_'
'encoding_'
'sequence^_'
'An^_'
'into^_'
'and_'
'Question^_'
'definition_'
'click^_'
'head^_'
'Enabled^_'
'Pixel^_'
'0.0F_'
'Home_'
'ity_'
'mc_'
'Conversion^_'
'ds^_'
'ER_'
'Done_'
'Wait^_'
'Certificate_'
'mods_'
'Trigger^_'
'Resources^_'
'Sample_'
'un^_'
'$'
'Light^_'
'timer_'
'Monitor^_'
'HTML^_'
'lower^_'
'city^_'
'*/"_'
'0'
'best^_'
'dp_'
'rc_'
'mp_'
'Setter_'
'with_'
'Authentication_'
'Success^_'
'002^_'
'validation^_'
'runtime^_'
'Workspace^_'
'preferences_'
'Gateway^_'
'128_'
'HEIGHT_'
'Worker_'
'accept^_'
'iprot_'
'31^_'
'90_'
'abc^_'
'Exit^_'
'per^_'
'Toolbar_'
'Currency^_'
'di_'
'bt^_'
'Attr^_'
'Original^_'
'g2_'
'Representation_'
'Prop^_'
'')"_'
'Dataset^_'
'Alarm^_'
'tuple_'
'33^_'
'∅∅∅^_'
'SECONDS_'
'(\\"^_'
'Diff_'
'weight_'
'ed\u^_'
'wrap_'
'Catalog^_'
'Site_'
'Tenant^_'
'Alpha_'
'Commands_'
'carbon_'
'Cursor^_'
'im_'
'Health^_'
'Easy^_'
'"∅∅∅∅"_'
'uid_'
'price^_'
'mv_'
'Transport_'
'java\u^_'
'Room_'
'Unexpected^_'
'bucket^_'
'present\u^_'
'ne^_'
'df_'
'Running_'
'children^_'
'Editable_'
'Args^_'
'29_'
'keep^_'
'sys^_'
'chunk^_'
'Subscription_'
'permission^_'
'Point2^_'
'∅∅\\^_'
'dst_'
'F\u^_'
'value1_'
'Shell_'
'tear^_'
'rule\u\u^_'
'hide^_'
'Coordinate_'
'move_'
'37_'
'Future^_'
'Digest_'
'um^_'
'increment^_'
'Unary^_'
'handlers_'
'tor_'
'De^_'
'ordinal_'
'Currency_'
'09^_'
'Faces^_'
'original_'
''.'_'
'permission_'
'Images_'
'given^_'
'Print_'
'Localized^_'
'~_'
'Exchange_'
'Team^_'
'enabled^_'
'i2_'
'bundle^_'
'list\u^_'
'Lookup_'
'Browser^_'
'Chars_'
'shutdown_'
't2_'
'Comparable_'
'repo_'
'Cookie_'
'value2_'
'Second^_'
'Requests_'
'Messages^_'
'gc_'
'center_'
'Threads_'
'Cms^_'
'score^_'
'gs_'
'c2_'
'la_'
'Clicked_'
'123_'
'")^_'
'Distance^_'
'delta^_'
'Destination_'
'Constructor^_'
'Stub^_'
'OR\u^_'
'42^_'
'dx_'
'Commit_'
'play_'
'fragment^_'
'Using^_'
''\\''_'
'down^_'
'Drag^_'
'P$^_'
'x2_'
'Transform^_'
'elem^_'
'DATE\u^_'
'Html_'
'csv^_'
'depth_'
'formatter_'
'nullable_'
'Close_'
'Marker^_'
'additional^_'
'hazelcast_'
'Blob^_'
'Wrapper^_'
'retrieve^_'
'GL^_'
'ERROR^_'
'unmodifiable^_'
'req^_'
'views_'
'variable_'
'ecore_'
'Photo^_'
'throwable_'
'18^_'
'pack_'
'Delta_'
'specified^_'
'ors_'
'priority_'
'ev_'
'Solr^_'
'BASE\u^_'
'less^_'
'servlet^_'
'OWL^_'
'Resume_'
'Throw_'
'256_'
'Current_'
'Cast^_'
'Connected_'
'AD\u^_'
'payment^_'
'Indicator_'
'Groups^_'
'RESULT\u^_'
'identity_'
'after_'
'SET_'
'ee_'
'configure^_'
'lang3_'
'ide_'
'400_'
'],^_'
'azure_'
'Runner^_'
'Charsets_'
'id\u^_'
'ml_'
'ic\u^_'
'kie_'
'Assignment\u^_'
'mod_'
'prototype^_'
'mod^_'
'Discovery^_'
'Exchange^_'
'vertex^_'
'Updated^_'
'dy_'
'Phase_'
'builder^_'
'Struct_'
'Stamp_'
'Tester_'
'METHOD\u^_'
'Partition_'
'items^_'
'Handle^_'
'book_'
'Running^_'
'Outer^_'
'Track_'
'more^_'
'course^_'
'using^_'
'Begin_'
'pending^_'
'Statistics^_'
'Parts_'
'DIR_'
'Branch^_'
'ons_'
'Split_'
'dataset_'
'slot_'
'Vars_'
'LIST\u^_'
'Place^_'
'Trigger_'
',-^_'
'Execute^_'
'"\u"_'
'FEATURE\u^_'
'generated_'
'Head_'
'CODE\u^_'
'workbench_'
've_'
'elem_'
'prefix^_'
'PATH\u^_'
'room^_'
'r1_'
'border^_'
'TABLE_'
'Solution_'
'Destroy_'
'Marshalling^_'
'06^_'
'item\u^_'
'Ok_'
'Diff^_'
'local_'
'ing\u^_'
'Prop_'
'Selector^_'
'Than_'
'wrapper_'
'predicate_'
'timeout^_'
'Unsigned^_'
'Dependency_'
'Elem_'
'Assignable^_'
'Subject^_'
'Auth_'
'policy^_'
'GROUP\u^_'
'Width^_'
'devtools_'
'symbol_'
'track^_'
'STRING\u^_'
'27_'
'features_'
'CM^_'
'Family_'
'gbc_'
'Links_'
'Params^_'
'56^_'
'cloud^_'
'0x00000001_'
'Counter^_'
'plan_'
'Words_'
'FALSE_'
'sequence_'
'memory^_'
'Archive^_'
'btn\u^_'
'business^_'
'demo_'
'Lat^_'
'selector_'
'ft_'
'trace^_'
'signature_'
'segment^_'
'Look^_'
'Lib^_'
'300_'
'Country_'
'chat^_'
'$_'
'is\u^_'
'lh_'
'da_'
'gradle_'
'results^_'
'jdbc_'
'redirect^_'
'PI_'
'Destination^_'
'Sheet^_'
'Analyzer_'
'Ok^_'
'refresh_'
'serializer_'
'Modify^_'
'resolver_'
'dynamic^_'
'Phone_'
'y2_'
'Bound^_'
'subscription^_'
'Origin_'
'ARRAY_'
'Evaluator_'
'Realm^_'
'bottom_'
'opengamma_'
'Indices_'
'peek_'
'Org^_'
'sub_'
'Tipo^_'
'Services^_'
'Primitive_'
'19^_'
'.0_'
'mail_'
'filters_'
'Movie^_'
'limit^_'
'ct_'
'Shard^_'
'--^_'
'G\u^_'
'Received^_'
'Writable^_'
'Minimum^_'
'ge_'
'35_'
'Started_'
'JSON\u^_'
'kt^_'
'Extra^_'
'ii_'
'END\u^_'
'a\u^_'
'Clock_'
'Initializer_'
'library^_'
'UTF\u^_'
'Ratio_'
'PORT_'
'ix_'
'022^_'
'Customer_'
'release_'
'Base64_'
'r2_'
'Finished_'
'33_'
'repo^_'
'microsoft_'
'red^_'
'Evaluation^_'
'li^_'
'Foreground_'
'exists^_'
'Failed_'
'Repo^_'
'Sound_'
'Days_'
'ssl^_'
'PROPERTY_'
'bottom^_'
'restore^_'
'Issue^_'
'Margin_'
'generic^_'
'place^_'
'Put_'
'access_'
'Transition^_'
'USER_'
'route^_'
'26^_'
'Wrong^_'
'Exceptions_'
'*"_'
'48_'
'NUM\u^_'
'Pager^_'
'Observable^_'
'RED_'
'74^_'
'preference_'
'Volume_'
'than^_'
'Declaration^_'
'Allowed_'
'ALL\u^_'
'cc^_'
'Duration^_'
'Rendering^_'
'ITEM\u^_'
'virtual^_'
'Maximum^_'
'let^_'
'city_'
'a1_'
'space^_'
'BY\u^_'
'Rotation_'
'configure_'
'chain_'
'Credentials^_'
'mask_'
'databind_'
'45_'
'Pane^_'
'Cost^_'
'Holiday_'
'AL\u^_'
'ATTR\u^_'
'contact_'
'OR^_'
'Fake^_'
'red_'
'Handlers_'
'Call\u^_'
'Registration_'
'Reg^_'
'Routing^_'
'px^_'
'Exp^_'
'swig^_'
'::^_'
'CONFIG\u^_'
'Captor_'
'policy_'
'area_'
'Graphics2^_'
'history^_'
'"("_'
'interval_'
'Serialization^_'
'new\u^_'
'Completable^_'
'minecraftforge_'
'Ids^_'
'mo^_'
'card_'
'connector_'
'Gen_'
'Backup^_'
'received^_'
'lab_'
'images^_'
'cp_'
'Off^_'
'options^_'
'08^_'
'RULE\u^_'
'Stock^_'
'tile_'
'cz_'
'stat_'
'contents_'
'CC^_'
'material_'
'RESOURCE\u^_'
'27^_'
'testing_'
'Preferences^_'
'Bottom^_'
'Country^_'
'Study^_'
'pow_'
'Repo_'
'ir_'
'ions^_'
'Bi^_'
'API\u^_'
'Group\u^_'
'"="_'
'Master_'
'ty^_'
'f1_'
'reg^_'
'Exec^_'
'reason_'
'your^_'
'x\u^_'
'MODE_'
'IS^_'
'callback^_'
'NEW\u^_'
'orderkey^_'
'functions_'
'ta^_'
'START_'
'extensions_'
'ra_'
'records_'
'\\"\\^_'
'X509^_'
'md_'
'FORMAT_'
'jpa_'
'month_'
'Self^_'
'53^_'
'WITH\u^_'
'FXML_'
'INDEX\u^_'
'util^_'
'Theme^_'
'OF^_'
'relative^_'
'SEPARATOR_'
'words_'
'country^_'
'Assert^_'
'prev_'
'working^_'
'Loop^_'
'note^_'
'href^_'
'Temp_'
'Deserializer_'
'scheduler_'
'ies^_'
'Toggle^_'
'bin^_'
'Alias^_'
'ML^_'
'Negative^_'
'Lazy^_'
'Allow^_'
'INDEX_'
'Members_'
'Subscriber_'
'd1_'
'}/^_'
'Hex_'
'Annotated^_'
'Executors_'
'has_'
'City_'
'viewer_'
'GUI_'
'Retention_'
'Secret_'
'READ\u^_'
'NS_'
'like^_'
'reply_'
'Student^_'
'Produces_'
'36_'
'Changes_'
'Secure^_'
'Revision_'
'"]^_'
'41^_'
'Detector_'
'Edges_'
'Keyword\u^_'
'Use_'
'Kie^_'
'cur_'
'cm_'
'Invoice^_'
'Structured^_'
'added^_'
'editor^_'
'Serial^_'
'Machine_'
'Encoded^_'
'indices_'
'ca^_'
'Nodes^_'
'Matching^_'
'Stage^_'
'ON_'
'ZERO_'
'warning_'
'Bottom_'
'che_'
'2\u_'
'∅∅∅∅∅∅∅∅∅∅∅∅∅∅∅^_'
'tv\u^_'
'Redis^_'
'clean^_'
'Quantity_'
'Scheme^_'
'TITLE_'
'orders^_'
'Reply_'
'rows^_'
'=\\""_'
'T\u\u^_'
'ap_'
'Cookie^_'
'Amount^_'
'Wizard^_'
'40^_'
'HTTP\u^_'
'Place_'
'COLOR\u^_'
'ION\u^_'
'shell_'
'DOWN_'
'pc_'
'Strategy^_'
'City^_'
'Generate^_'
'Added_'
'$"_'
'tester_'
'indent_'
'note_'
'34_'
'am_'
'Final^_'
'Fill^_'
'action\u^_'
'Models_'
'sync_'
'ent^_'
'Mappings_'
'Sensor_'
'5\u^_'
'hive_'
'DB\u^_'
'Force^_'
'gui^_'
'mob_'
'ads_'
'Indexed^_'
'Please^_'
'space_'
'dc^_'
'Switch_'
'Defaults_'
'cli_'
'foo_'
'Peer_'
'OS^_'
'Less^_'
'?,^_'
'Bus^_'
'Preview^_'
'Scan_'
'Dot^_'
'endpoint^_'
'suite_'
'receive^_'
'IMAGE\u^_'
'printf_'
'generated^_'
'CACHE\u^_'
'White^_'
'ie_'
'Reflection^_'
'args^_'
'n\u^_'
'TIMEOUT_'
'presto_'
'Broker^_'
'serialize_'
'trigger^_'
'Req_'
'spring_'
'need^_'
'interval^_'
'subject^_'
'variables_'
'Str^_'
'As_'
'executor^_'
'Validator^_'
'Gregorian^_'
'translate_'
'crypto_'
'Security_'
'maven_'
'*=_'
'That^_'
'Iter_'
'10000_'
'Question_'
'Span^_'
'CLIENT\u^_'
'css^_'
'kit_'
'mime^_'
'2.0_'
'ci_'
'FS^_'
'Power_'
'active_'
'Live^_'
'Padding_'
'NOUN^_'
'Trust^_'
'Chain^_'
'Clear^_'
'ATTRIBUTE\u^_'
'Bucket_'
'Additional^_'
'origin_'
'Problem^_'
'NULL\u^_'
'tx^_'
'UPDATE\u^_'
'paint^_'
'worker^_'
'Working^_'
'identity^_'
'mapping^_'
'transform^_'
'Release^_'
'Matches_'
'ity^_'
'ers^_'
'0000^_'
'pe_'
'Actor^_'
'localctx_'
'ma^_'
'transient_'
'Common_'
'Second_'
'Leaf^_'
'SET\u^_'
'execution_'
'details_'
'Definitions_'
'running^_'
'";"_'
'menu\u^_'
'raw_'
'Calculator_'
'asset^_'
'Physical^_'
'Aggregate^_'
'l\u^_'
'SIZE\u^_'
'\u\u\uCARET\u\u\u^_'
'backtracking_'
'kuali_'
'Previous^_'
'toolbar_'
'names^_'
'map'
'Loc_'
'distance^_'
'Lifecycle^_'
'low_'
'translate^_'
'Normal^_'
'angle_'
'1.0F_'
'Configs_'
'del^_'
'70_'
'cas_'
'section_'
'REQUEST_'
'socket^_'
'Criteria^_'
'Weather^_'
'Patient^_'
'Behavior_'
'Kafka^_'
'Updated_'
'amount^_'
'nums_'
'scope^_'
'Setup_'
'par1^_'
'which^_'
'describe^_'
'dt_'
'(\\^_'
'PATTERN_'
'authentication_'
'modify^_'
'---------------^_'
'handler^_'
'board^_'
'Year^_'
'section^_'
'Schedule_'
'Geometry_'
'androidx_'
'Keys^_'
'COLOR_'
'ELEMENT\u^_'
'logic_'
'goog^_'
'Counts_'
'005f'
'OR_'
'OK^_'
'Suffix_'
'Reporter_'
'realm_'
'\u'
'Usuario_'
'pp_'
'ql_'
'Organization^_'
'merge_'
'adaptor_'
'capacity_'
'widget^_'
');^_'
'Import_'
'd2_'
'IN_'
'Face_'
'labels_'
'High^_'
'cion_'
'fields^_'
'sa_'
'Parsing^_'
'by_'
'free^_'
'Cmd^_'
'cat_'
'ext^_'
'rpc_'
'Ignite^_'
'pop^_'
'Unmarshaller_'
'CREATE^_'
'Work_'
'PER\u^_'
'KEY^_'
'jpg^_'
'B\u^_'
'tables_'
'clone^_'
'flag^_'
'Seek^_'
'phone_'
'Branch_'
'Padding^_'
'Testing^_'
'old_'
'now^_'
'Toolkit_'
'fi_'
'Lib_'
'Soft^_'
'set'
'Invocation_'
'pstmt_'
'Board^_'
'constants_'
'07^_'
'Helper^_'
'Already^_'
'Sources_'
'ter_'
'Special^_'
'Fail^_'
'IP_'
'OBJECT\u^_'
'44_'
'page\u^_'
'company^_'
'Save_'
'VM^_'
'URL\u^_'
'Aggregation^_'
'Height^_'
'ad_'
'receiver_'
'"∅∅∅"_'
'marshall^_'
'bot_'
'Month^_'
'Bank^_'
'Extensions_'
'Atom_'
'pentaho_'
'sw_'
'Positive^_'
'user\u^_'
'site_'
'business_'
'Actual^_'
'pool^_'
'DAY_'
'Pause_'
'MONTH_'
'Concept^_'
'blocks_'
'destroy_'
'Manifest_'
'ION_'
'click_'
'inst_'
'//^_'
'Specific^_'
'256^_'
'get'
'area^_'
'buck_'
'NODE\u^_'
'Binary_'
'parameters^_'
'dev_'
'Company^_'
'rate^_'
'Integration^_'
'35^_'
'named^_'
'collections_'
'Employee_'
'paths_'
'year^_'
'Static_'
'desc^_'
'cos_'
'Transformer^_'
'Forward_'
'Article^_'
'Camel^_'
'memoized^_'
'Utf8_'
'authentication^_'
'Wiki^_'
'News^_'
'Resolve^_'
'Over^_'
'Renderer^_'
'CONTENT_'
'          ^_'
'Team_'
'Reset^_'
'direct^_'
'Zero^_'
'Quick^_'
'Weak^_'
'Named_'
'Remote_'
'INSERT^_'
'l1_'
'ks_'
'EDEFAULT_'
'Greater^_'
'Used^_'
'Author_'
'Tags^_'
'Head^_'
'retry^_'
'home_'
'scan_'
'=%^_'
'calc^_'
'Completed_'
'console_'
'strings_'
'0x4'
'ia^_'
'JR^_'
'symbol^_'
'Validation_'
''/'_'
'bad^_'
'co^_'
'change_'
'Ext^_'
'Sprite_'
'ings_'
'Delivery^_'
'"${^_'
'jdesktop_'
'Coordinates_'
'Rotation^_'
'Are^_'
'WHITE_'
'self^_'
'sorted^_'
'Gravity_'
'RGB_'
'STATUS_'
'S3^_'
'concat_'
'Family^_'
'alert_'
'ao_'
'ee^_'
'Structural^_'
'150^_'
'Include^_'
'schedule_'
'Locations_'
'0x0000000000000^_'
'Parameterized^_'
'ex^_'
'sign^_'
'-'
'ids^_'
'Compare^_'
'DELETE_'
'Alert_'
'53_'
'0.5f_'
'ls^_'
'collect^_'
'Std^_'
'jp_'
'engine^_'
'texture^_'
'Insert_'
'Flag^_'
'Translation^_'
'ES^_'
'class'
'Used_'
'submit^_'
'Parcelable_'
'yet^_'
'plan^_'
'Buttons_'
'INTO^_'
'driver^_'
'big^_'
'W'
'Partial^_'
'returned^_'
'Choice^_'
'Picker_'
'll'
'Priority^_'
'tv_'
'HH^_'
'Seq^_'
'Existing^_'
'COLUMNNAME\u^_'
'ws^_'
'b1_'
'jdt_'
'chars_'
'bits_'
'MASK_'
'examples_'
'Measure_'
'Reply^_'
'2L_'
'Username^_'
'Inputs_'
'Producer^_'
'Supported_'
'Received_'
'modified^_'
'sun^_'
'QNAME_'
'OM^_'
'K'
'rx_'
'Wifi^_'
'))^_'
'on\u^_'
'TYPE^_'
'faces_'
'dummy^_'
'Convert^_'
'submit_'
'Join_'
'RELATED_'
'track_'
''%^_'
'Publisher_'
'Semantic^_'
'back_'
'ER^_'
'g2d_'
'jsp_'
'36^_'
'Pdf^_'
'RESULT_'
'author_'
'segment_'
'listener^_'
'FOR\u^_'
'Tx^_'
'Pay^_'
'Plot^_'
'Shadow^_'
'UNKNOWN_'
'cast_'
'Attachment^_'
'mp^_'
'Modifiers_'
'GUI^_'
'Launch^_'
'Asset_'
'Proto^_'
'delay_'
'insets_'
'gms_'
'VIEW\u^_'
'Enter^_'
'HTML_'
'Numbers_'
'ps^_'
'Children^_'
'populate^_'
'TO^_'
'Exists^_'
'types^_'
'old'
'Market^_'
'define^_'
'Sparse^_'
'lo^_'
'team^_'
'consumer^_'
'CSV^_'
'ode_'
'3'
'Distribution^_'
'Bulk^_'
'Include_'
'statement^_'
'Plus_'
'Concept_'
'))"_'
'normal^_'
'var1_'
'Go^_'
'env^_'
'Choice_'
'vertx_'
'ff^_'
'Cross^_'
'Picker^_'
'pass^_'
'ro_'
'ws'
'Injector_'
'low^_'
'openqa_'
'oracle_'
'f2_'
'ab^_'
'Capabilities_'
'be_'
'80^_'
'PAGE\u^_'
'geom_'
'failure^_'
'changed^_'
'layer^_'
'n2_'
'backend_'
'Cancel_'
'conf^_'
'wrong^_'
'56_'
'Small^_'
'cols_'
'Validate_'
'Bit_'
'fm_'
'ize_'
'pipeline^_'
'Employee^_'
'actor_'
'secret^_'
'Viewer^_'
'question^_'
'ONE_'
'finish^_'
'Bind_'
'Attempt^_'
'Two_'
'WS^_'
'OPTION_'
'UT^_'
'notify_'
'author^_'
';'
'Archive_'
'a2_'
'our^_'
'Jpa^_'
'remote_'
'Scheduler^_'
'Sync_'
'between^_'
'df'
'seed_'
'Accept^_'
'orig^_'
'DESC_'
'zip_'
'44^_'
'root\u^_'
'Seq_'
'Plain^_'
'light^_'
'Patch^_'
'Testing_'
'binding^_'
'END_'
'ts'
'Io^_'
');\\^_'
'text\u^_'
'Eval^_'
'29^_'
'cursor^_'
'ao^_'
'Positions_'
'003^_'
'Prefs_'
'WARNING_'
'route_'
'Qualifier_'
'INTEGER_'
'master_'
'sheet_'
'character^_'
'Thrift^_'
'Geometry^_'
'ED^_'
'Dependencies_'
'skip_'
'Vector3f_'
'ovirt_'
'tm_'
'Players_'
'ioe_'
'JNI_'
'Serializer^_'
'cb^_'
'APP\u^_'
'ma_'
'It_'
'maps_'
'structure_'
'41_'
'Association^_'
'encoded^_'
'Pages_'
'Connected^_'
'Bounding^_'
'rd_'
'DOUBLE_'
'ant_'
'Pass_'
'Wait_'
'tc_'
'STATE_'
'ST^_'
'SYSTEM\u^_'
'Allowed^_'
'Naming^_'
'Fixture_'
'Rules^_'
'snapshot^_'
'sqrt_'
'GET^_'
'DESCRIPTION_'
'Effect^_'
'Cipher_'
'max'
'Watcher_'
'xpath_'
'"["_'
'Operand_'
'Setup^_'
'tracker_'
'wrap^_'
'volume^_'
'om_'
'Uid_'
'"*"_'
'cat^_'
'speed_'
'atomic_'
'compute_'
'Compiler_'
'*'
'References_'
'Music^_'
'Global_'
'Signal^_'
'publish^_'
'Updater_'
'channels_'
'NUMBER\u^_'
'Age_'
'60^_'
'Scene^_'
'nb^_'
'45^_'
'cup_'
'Mobile^_'
'Css^_'
'''
'pid_'
'may^_'
'operations_'
'hp_'
'sm_'
'();"_'
'OS_'
'cal^_'
'TASK\u^_'
'Decision^_'
'Ldap^_'
'seq_'
'Off_'
'99_'
'deleted^_'
'Loop_'
'weight^_'
'Hook_'
'Conf^_'
'camera^_'
'ame_'
'stats^_'
'37^_'
'Follow_'
'Forward^_'
'operator^_'
'CREATE\u^_'
'Pixels_'
'gridy_'
'Conn_'
'Iterator^_'
'Relationship^_'
'Dictionary^_'
'030^_'
'creation^_'
'gridx_'
'screen_'
'reply^_'
'em^_'
'DAY\u^_'
'maximum^_'
'ml^_'
'condition^_'
'>'
'MILLISECONDS_'
'Ops_'
'games_'
'install^_'
'{};"_'
'Csv^_'
'Translation_'
'yang_'
'Warning_'
'6\u^_'
'previous_'
'deployment^_'
'Tick^_'
'params^_'
'Combo_'
'na^_'
'SC\u^_'
'Exit_'
'Cancelled_'
'1'
'HEADER\u^_'
'camera_'
'Pipeline_'
'repaint_'
'Some^_'
'assertj_'
'cnt_'
'stub_'
'country_'
'nodes^_'
'i18n_'
'geometry_'
'Validate^_'
'FORMAT\u^_'
'extends^_'
'support^_'
'Verifier_'
'"∅∅∅∅∅∅∅∅∅∅"_'
'rawtypes^_'
'Slider_'
'arg2_'
'2000_'
'nested^_'
'Console_'
'Visual^_'
'roles_'
'osgi_'
'AL_'
'Encryption^_'
'sb'
'Embedded^_'
'marker_'
'Accessible_'
'est^_'
'Rect^_'
'+'
'Many_'
'mi^_'
'Delta^_'
'Duplicate^_'
'messages^_'
'drools_'
'runners_'
'Sum^_'
'Multimap_'
'.'
'Dom^_'
'peer^_'
'cf_'
'codehaus_'
'XML\u^_'
'presenter_'
'Persistence_'
'Func_'
'Issue_'
'focus^_'
'Between_'
'267^_'
'Notify_'
'pref^_'
'history_'
'mark_'
'YEAR_'
'Realm_'
'joda_'
'Formula_'
'workspace_'
'comparator_'
'plain^_'
'slot^_'
'EC'
'js_'
'Trade^_'
'Builders_'
'Workspace_'
'flat^_'
'FOUND_'
'H'
'Permissions^_'
'dist_'
'escape^_'
'Addresses_'
'52_'
'OP\u^_'
'XY^_'
'Knowledge^_'
'permissions_'
'chat_'
'rel^_'
'Sink_'
'INPUT\u^_'
'i\u^_'
'Receive^_'
'ORDER^_'
'integration_'
'Expect_'
'key'
'samples_'
'PREF\u^_'
'Rank_'
'uuid^_'
'Callbacks_'
'comments_'
'mapped^_'
'ra^_'
'Plot_'
'0x7'
'google\u^_'
'll_'
'DF^_'
'Indexes_'
'apps_'
'Ex^_'
'Hit^_'
'TOKEN\u^_'
'Comments_'
'got^_'
'Img_'
'idx^_'
'catalog_'
'Connections_'
'fixed^_'
'Round^_'
'Now_'
'transfer^_'
'vertex_'
'visible^_'
'sourceforge_'
'algorithm_'
'sensor^_'
'branch^_'
'Modification^_'
'Cols_'
'Conditions_'
'off^_'
'valid_'
':'
'0x0'
'under^_'
'Loaded_'
'UR^_'
'fc_'
'Instruction^_'
'Hits_'
'sax_'
'chunk_'
'l2_'
'ys_'
'dataset^_'
'Course_'
'ke^_'
'Under^_'
'program^_'
'Sender^_'
'Tracking^_'
'na_'
'ft'
'environment^_'
'#"_'
'rate_'
'Media_'
'border_'
'side_'
'Replication^_'
'processing^_'
'persist_'
'65_'
'requested^_'
'Initialization^_'
'summary_'
'BLACK_'
'workspace^_'
'Mapped^_'
'vertices_'
'packet^_'
'make_'
'Alpha^_'
'feed^_'
'INTEGER^_'
'8'
'student^_'
'act_'
'COL\u^_'
'Int'
'nd_'
'beam_'
'ted^_'
'Delay^_'
'TIME^_'
'Objects^_'
'Feedback^_'
'Val^_'
'dump^_'
'Mockito^_'
'analytics_'
'Throws_'
'Payload^_'
'Fault^_'
'shard^_'
'rhs_'
'∅∅∅∅^_'
'ka'
'Clone^_'
'scheme^_'
'Conditional^_'
'jena_'
'nd'
'Recipe^_'
'shutdown^_'
'ant^_'
'Final_'
'loaded^_'
'QL^_'
'Temporal^_'
'Removed_'
'BOOLEAN_'
'Boot^_'
'correct^_'
'0x00000002_'
'rotate^_'
'Publish^_'
'str'
'METHOD_'
'Notify^_'
'alibaba_'
'∅∅"_'
'optional^_'
'ENABLED_'
'},^_'
'Saved^_'
'psi^_'
'sin_'
'Cnt_'
'Cycle^_'
'charset^_'
'ES_'
'Replace^_'
'Curve^_'
'onosproject_'
'Alt^_'
'tools^_'
'suffix_'
'51_'
'INT\u^_'
'so^_'
'Insn_'
'factory^_'
'par'
'9'
'Relationship_'
'\\"'
'craft_'
'bucket_'
'func^_'
'maybe^_'
'gameserver_'
'players_'
'design_'
'dim_'
'ec_'
'Queries_'
'Grammar^_'
'Inject^_'
'signature^_'
'v3_'
'Help_'
'Credit^_'
'Creative^_'
'month^_'
'Scalar^_'
'done^_'
'cookie_'
'Heap^_'
'combo^_'
'\\":{\\"^_'
'NORMAL_'
'room_'
'NS^_'
'PASSWORD_'
'Aware^_'
'Else_'
'QUERY\u^_'
'Atom^_'
'inputs_'
'Authority_'
'Principal^_'
'workflow^_'
'chart^_'
'Is_'
'0x0_'
'override^_'
'/'
'Zoom^_'
'ck^_'
'\\",\\^_'
'Purchase^_'
'Logging_'
'Catalog_'
'J_'
'"}\\^_'
'CLOSE_'
'mt'
'Steps_'
'anchor_'
'equal_'
'separator^_'
'recover_'
'43_'
'metas_'
'nano^_'
'sign_'
'item'
'150_'
'b2_'
'marshall_'
'Readable^_'
'75_'
'code'
'impl^_'
'changed_'
'ons^_'
'Printer_'
'Warning^_'
'cs^_'
'locator_'
'xml'
'Inline^_'
'mobile_'
'removed^_'
'T2_'
'Foreign^_'
'ACTION_'
'urn^_'
'Patterns_'
'lc'
'Speed^_'
'ct^_'
'origin^_'
'Logic_'
','
'buff_'
'Answer^_'
'55_'
'3\u_'
'Lng_'
'vars_'
'geo^_'
'list'
'mkdirs_'
'0x5'
'Graphics^_'
'JMS^_'
'diff^_'
'lib'
'arg'
'It^_'
'Starting^_'
'ops_'
'Docs_'
'this\u^_'
'ps'
'filtered^_'
'platform^_'
'Demo^_'
'Deleted_'
'duration^_'
'visible_'
'rep_'
'called^_'
'jsp^_'
'\\">\\^_'
'parsers_'
'disk^_'
'Suite^_'
'38_'
'Phase^_'
'BINDING_'
'enums_'
'digest_'
'Stored^_'
'       ^_'
'var2_'
'type'
'MQ^_'
'constraint^_'
'eval^_'
'unlock_'
'generate_'
'28^_'
'Streaming^_'
'?'
'Tasks^_'
'JOIN^_'
'CODES_'
'T1_'
'Sales^_'
'constant_'
'Predicate^_'
'credentials_'
'fsp_'
'fix^_'
'memory_'
'Modules_'
'Send_'
'attach^_'
'Skip^_'
'Rows^_'
'2f_'
'evaluate^_'
'Vector3_'
'else^_'
'5f_'
'Watch^_'
'000L_'
'X'
'events^_'
'Polygon_'
'texture_'
'detail_'
'Added^_'
'Instances^_'
'mat_'
'services^_'
'Vo_'
'fos_'
'!=^_'
'Lang^_'
'not_'
'Distribution_'
'Apply^_'
'Translator_'
'2'
'ype_'
'article^_'
'SOAP^_'
'generator^_'
'Money_'
'HORIZONTAL_'
'VM_'
'Frequency_'
'button\u^_'
'dev^_'
'Override^_'
'Later_'
'mi_'
'Ext_'
'Bindings_'
'BLOCK\u^_'
'Hints_'
'compile^_'
'Problem_'
'expr^_'
'"∅^_'
'Bridge^_'
'Req^_'
'inner_'
'Verify^_'
'Piece_'
'Instantiation^_'
'artifact_'
'Sign_'
'cpw_'
'rel_'
'Registered^_'
'4'
'99^_'
'Desc^_'
'Weight^_'
'dismiss_'
'Topology^_'
''}'_'
'yy^_'
'Zero_'
'Ticket^_'
'mid_'
'Channels_'
'Pref^_'
'simple_'
'git^_'
'supports^_'
'fs^_'
'Credential_'
'dispatch^_'
'fetch_'
'Basic_'
'detail^_'
'vm'
'test'
'Categories_'
'BUFFER\u^_'
'min'
'ac^_'
'Tabs_'
'MS_'
'0x6'
'Typeface_'
'am^_'
'collector_'
'Review^_'
'high^_'
'per_'
'bpm_'
'zero^_'
'encoding^_'
'43^_'
'lo_'
'Env^_'
'ate_'
'Revision^_'
'Aware_'
'Capability_'
'loading^_'
'5'
'notes_'
'baos_'
'est_'
'bit'
'dim^_'
'latitude_'
'subscribe_'
'55^_'
'Parsed^_'
'fs'
'ck_'
'zone^_'
'photo^_'
'39_'
'hit^_'
'Ast^_'
'm1_'
'cp'
'Tabbed^_'
'cx_'
'prepared^_'
'observer_'
'sys_'
'pm'
'toggle^_'
'Deployment_'
'Latitude_'
'Party^_'
'axis^_'
'quickfix_'
'8\u^_'
'n1_'
'Circle^_'
'resolved^_'
'none^_'
'Show_'
'java'
'colors_'
'ter^_'
'character_'
'loop^_'
'fw_'
'opt_'
'backup^_'
'Swipe^_'
'Disabled_'
'hex^_'
'orm_'
'could^_'
'invocation_'
'Eval_'
'Capture^_'
's3_'
'AND\u^_'
'sp^_'
'manager^_'
'ibm_'
'Data'
'cf'
'NS\u^_'
'scheme_'
'async_'
'last'
'BAD\u^_'
'metric_'
'Longitude_'
'dc_'
'ive^_'
'hs'
'param'
'abstract^_'
'Week_'
'!'
'il_'
'identifier^_'
'Best^_'
'small^_'
'which_'
'rec_'
'customer_'
'RS_'
'netflix_'
'Popup_'
'Native_'
'%"_'
'members_'
'Related^_'
'DB'
'longitude_'
'Hub^_'
'period_'
'Lang_'
'plot_'
'perform_'
'sh_'
'Mark^_'
'Keyboard^_'
'JDBC^_'
'L2^_'
'Into^_'
'share^_'
'g\u^_'
'Gui_'
'singleton_'
'mongodb_'
'complete_'
'spongepowered_'
'parser^_'
'Damage_'
'usage_'
'Refresh_'
'Pass^_'
'Contains^_'
'swagger_'
'const^_'
'Ajax^_'
'Percent_'
'shift^_'
'HA'
'Blob_'
'sh^_'
'Sim^_'
'pass_'
'va_'
'Cert^_'
'LOCATION_'
'Cast_'
'ure_'
'Anchor_'
'Rx^_'
'ht'
'md'
'0x8'
'utf^_'
'Enable_'
'SHOW\u^_'
'Low^_'
'License^_'
'nd^_'
'seq^_'
'Simulation^_'
'ze_'
'Exist_'
'NAMESPACE_'
'broker_'
'partition_'
'Resolver^_'
'ness_'
'forward^_'
'outer^_'
'CONFIG_'
'Decorator_'
'Fn_'
'dimension_'
'		^_'
'tor^_'
'pointer_'
'Skill^_'
'asm_'
'starting^_'
'vals_'
'Holder^_'
'LAST\u^_'
'Implementation_'
'Literals_'
'stage^_'
'break^_'
'Robot^_'
'comp^_'
'll^_'
'47_'
'sp'
'zoom^_'
'controller^_'
'Contacts^_'
'Average^_'
'Ore^_'
'ab_'
'Advanced^_'
'Joiner_'
'Interfaces_'
'Confirm^_'
'7\u^_'
'information^_'
'gif^_'
'Black^_'
'ting^_'
'Defined^_'
'cf^_'
'transition^_'
'tags^_'
'details^_'
'assign^_'
'lat_'
'Student_'
'Paged^_'
'Classifier_'
'Nav^_'
'Icons_'
'helpers_'
'Pairs_'
'Tax^_'
'Filename^_'
'Feed_'
'AWS^_'
'trans^_'
'Design^_'
'PARAMETER\u^_'
'Matcher^_'
'druid_'
'Trans^_'
'Ruby^_'
'ff_'
'Mem^_'
'adapter^_'
'unregister^_'
'47^_'
'units_'
'patient^_'
'setting^_'
'','^_'
'Comp_'
'cr_'
'SET^_'
'Any_'
'Finder^_'
'Facet^_'
'lista^_'
'thrown^_'
'plus_'
'trans_'
'Mutable_'
'Utils^_'
'rt^_'
'Framework^_'
'Fact^_'
'constraint_'
'\\">^_'
'WEST_'
'].^_'
'ds'
'ACTIVITY\u^_'
'pt^_'
'ejb_'
'possible^_'
'Points^_'
'GA'
'local'
'Surface_'
'NON\u^_'
'Balance_'
'Variant^_'
'f\u^_'
'tr'
'ali'
'ONLY_'
'Tracker^_'
'Tests^_'
'46_'
'hive^_'
'Contains_'
'Mac^_'
'Rating_'
'ables_'
'bus_'
'over^_'
'ro^_'
'serialize^_'
'Formatted^_'
'CB_'
'baz^_'
'Coords_'
'GROUP_'
'optional_'
'SS^_'
'cao_'
'ver^_'
'Src^_'
'Management_'
'multiply_'
'soap^_'
'Btn^_'
'ec'
'PK_'
'place_'
'priority^_'
'Interpolator_'
'safe^_'
'Actions^_'
'cs'
'Receiver^_'
'rb'
'Versions_'
'Abs^_'
'rm_'
'current\u^_'
'Ready_'
'await_'
'Smart^_'
'Com^_'
'Calls_'
'Begin^_'
'fa^_'
'Workbench^_'
'Dimensions_'
'FAILED_'
'browser_'
'Vec_'
'man_'
'True^_'
'Plus^_'
'tp_'
'launch^_'
'200^_'
'ff'
'Draw_'
'Ordered^_'
'OUTPUT\u^_'
'bw_'
'Online^_'
'registered^_'
'max\u^_'
'ut_'
'ie^_'
'59_'
'loc^_'
'gs'
'completed^_'
'dt'
'Fail_'
'NG\u^_'
'Pref_'
'latest^_'
'Transient_'
'ENTITY\u^_'
'CC'
'ae'
'Bridge_'
'Picture^_'
'VIEW_'
'Coordinate^_'
'";^_'
'7'
'Variant_'
'Opcodes_'
'light_'
'ua'
'TOKEN_'
'rank_'
'Configured^_'
'Living^_'
'OBJECT_'
'Chat_'
'another^_'
'nce^_'
'SDK\u^_'
'bs'
'H\u^_'
'sdk^_'
'TEST^_'
'did^_'
'keys^_'
'sg'
'help_'
'cc'
'Distributed^_'
'Portlet^_'
'lp_'
'analyzer_'
'cells_'
'cv_'
'ness^_'
'J'
'work_'
'ms'
'About^_'
'issue^_'
'0x3'
'ul^_'
'seconds_'
'principal_'
'Gdx_'
'Windows^_'
'stored^_'
'the'
'Energy^_'
'Organization_'
'Codec^_'
'popup^_'
'127^_'
'rs'
'v1beta1_'
'ht_'
'):^_'
'Jsp^_'
'Mat_'
'Manifest^_'
'Messaging^_'
'Large^_'
'of'
'G'
'der^_'
'Opt_'
'Redirect^_'
'[@^_'
'er\u^_'
'api'
'down_'
'Transformation^_'
'Terms_'
'mm'
'Factories_'
'on'
'transformer_'
'Sub'
'255^_'
'attributes^_'
'shape^_'
'FX^_'
'"        "_'
'images_'
'decimal^_'
'peer_'
'links_'
'Diagram^_'
'con^_'
'data'
'120_'
'EC^_'
'Overlay_'
'key\u^_'
'52^_'
'USE\u^_'
'62^_'
'data\u^_'
'\\">"_'
'%'
'Damage^_'
'Slice_'
'md^_'
'poll_'
'Contract^_'
'103^_'
'pc'
'definition^_'
'Expressions_'
'locale^_'
'oid_'
'view'
'ir^_'
'fn_'
'02_'
'constant^_'
'Twitter^_'
'blob^_'
'constructor_'
'edges_'
'func_'
'ec^_'
'dao^_'
'ACCESS\u^_'
'take^_'
'compiere_'
'about^_'
'me'
'Resolved^_'
'classes^_'
'candidate_'
'audit^_'
'hudson_'
'classpath^_'
'TOP_'
'Temporary^_'
'flush^_'
'ch'
'timer^_'
'Serializable^_'
'Angle^_'
'transport^_'
'SQL\u^_'
'field'
'+"_'
'LABEL_'
'name\u^_'
'Allocation^_'
'INSTANCE\u^_'
'COMMAND\u^_'
'2011^_'
'bound^_'
'pages_'
'Fix^_'
'minimum^_'
'bank^_'
'dependency^_'
'Classes^_'
'matching^_'
'ox_'
'web'
'Latest^_'
'TION\u^_'
'Visit^_'
'Signed^_'
'Parse_'
'b\u^_'
'poi_'
'L'
'jm'
'US_'
'Jar_'
'Known^_'
'sound^_'
'Like_'
'ADD\u^_'
'm2_'
'SOURCE\u^_'
'Ssl^_'
'"{"_'
'Drawable^_'
'file\u^_'
'|'
'txt_'
'bc_'
'labs_'
'Multipart^_'
'created_'
'63_'
'∅∅∅∅∅^_'
'FF^_'
'Segments_'
'Modifier^_'
'started^_'
'MAP\u^_'
'loop'
'worker_'
'authorization^_'
'View\u^_'
'expand^_'
'0x9'
'MAX_'
'pb_'
'cost_'
'categories_'
'LINE_'
']\\^_'
'Migration^_'
'SA'
'tokenizer_'
'round^_'
'greater^_'
'standard^_'
'cp^_'
'tre'
'NODE_'
'Thing_'
'DA'
'LOCAL\u^_'
'dk_'
'deserialize_'
'provide^_'
'ur_'
'NO^_'
'team_'
'Bukkit_'
'BUTTON\u^_'
'nce_'
'spring^_'
'Urls_'
'si_'
'let_'
'fd_'
'states_'
'spec^_'
'ink_'
'avg^_'
'VI'
'job'
'Locked_'
'dm_'
'remaining_'
'Comp^_'
'end'
'Fire^_'
'Keyword^_'
'type\u^_'
'spawn^_'
'Completed^_'
'">"_'
'49_'
'snapshot_'
'sim_'
'Idle^_'
'Hit_'
'exc_'
'180_'
'background_'
'googlecode_'
'Candidate_'
'Streams_'
'mvc_'
'hu_'
'buffered^_'
'Needed_'
'TIMESTAMP^_'
'defined^_'
':%^_'
'','_'
'US^_'
'Src_'
'dos_'
'Vertices_'
'cm'
'Deleted^_'
'camunda_'
'ti_'
'ate^_'
'organization^_'
'fc'
'Logged^_'
'Portal^_'
'currency^_'
'CAST^_'
'Red^_'
'Fault_'
'ha^_'
'TEXT^_'
'':^_'
'Time'
'us'
'FLOAT_'
'Floating^_'
'extras_'
'ur^_'
'archive^_'
'mr'
'bi_'
'Symbols_'
'ship^_'
'node'
'Img^_'
'pi^_'
'5000_'
'implemented^_'
'Delimited^_'
'reg_'
'gbc\u^_'
'maven^_'
'one'
'cl'
'Hierarchy^_'
'fb'
'Submit^_'
'Guid_'
'Article_'
'Vector2_'
'Ka'
'red'
'cd_'
'xmlns^_'
'columns^_'
'message\u^_'
'Photo_'
':/^_'
'Curve_'
'reader^_'
'catalog^_'
'Gesture^_'
'Requirement_'
'ke_'
'employee^_'
'fake^_'
'Providers_'
'ls'
'Where^_'
'ing'
'kan'
'arguments^_'
'opengl_'
'Install^_'
'ADDRESS_'
'diagram_'
'argument_'
'Safe_'
'Resolution_'
'Shell^_'
'PORT\u^_'
'clock_'
'Finished^_'
'\\":[\\"^_'
'IF^_'
'Browser_'
'IF'
'multiple^_'
'reverse^_'
'Digest^_'
'PRIVATE_'
'num\u^_'
'core'
'Responses_'
'}'
'sender^_'
'Spawn^_'
'assignment_'
'Sprite^_'
'ion\u^_'
'enable_'
'000_'
'wait_'
'composite_'
'Projection_'
'quantity_'
'ONE\u^_'
'Col'
'Candidate^_'
'Vehicle^_'
'MS^_'
'sent^_'
'le'
'RUNTIME_'
'problem^_'
'fp'
'Pixel_'
'Analysis_'
'deep^_'
'entity'
'Loaded^_'
'view\u^_'
'cion^_'
'RS'
'Consts_'
'der_'
'OFFSET_'
'file'
'Comparison^_'
'Scenario^_'
'steps_'
'exclude^_'
'groups^_'
'nt'
'DELETE^_'
'without^_'
'Each^_'
'Facing_'
'Connect_'
'LI'
'2001^_'
'mar'
'Life^_'
'alpha^_'
'Loan^_'
'Severity_'
'Regex_'
'way^_'
'ptr_'
'Single_'
'∅∅∅∅∅∅^_'
'var3_'
'ssl_'
'3L_'
'There^_'
'kubernetes_'
'Hour_'
'camel^_'
'Jobs_'
'Shift^_'
'Author^_'
'NG_'
'Circle_'
'page'
'recycler^_'
'time'
'datastore_'
'NA'
'://"_'
'bi^_'
'Balancer^_'
'is'
'Gson^_'
'vs'
'Entries^_'
'intent^_'
'stat^_'
'structure^_'
'Aws^_'
'Completion_'
'info'
'ol'
'Proposal^_'
'hostname_'
'query'
'disabled^_'
'54_'
'Credential^_'
'ID'
'orientation_'
'opts_'
'MS'
'Origin^_'
'tech_'
'ri_'
'Group\u\u^_'
'Envelope_'
'dict_'
'MATCH\u^_'
'ba_'
'fd'
'bo_'
'54^_'
'Leaf_'
'work'
'Label1_'
'Beans_'
'Broker_'
'Secondary^_'
'Wrap_'
'O'
'Raw_'
'Controls_'
'connected^_'
'mem^_'
'Arn_'
'ei^_'
'Video_'
'Extras_'
'Marshall^_'
'Magic^_'
'ACCOUNT\u^_'
'event'
'fis_'
'side^_'
'ARG\u^_'
'se'
'Billing^_'
'index'
'Overlay^_'
'Columns^_'
'ST_'
'hi^_'
'rename^_'
'tt'
'ji'
'dot^_'
'blue_'
'Partial_'
'Terminal_'
'mud_'
'error\u^_'
'clients_'
'Interaction^_'
'Participant^_'
'GLE^_'
'"\\\\'
'ignored_'
'Fraction_'
'USER^_'
'Flat^_'
'Cells_'
'R'
'Loading_'
'fragments_'
'line'
'Light_'
'Updates_'
'group'
'pr'
'counter^_'
'rc'
'pixel^_'
'vec_'
'Face^_'
'ee'
'je'
'Quote^_'
'cy_'
'['^_'
'needs^_'
'Highlight^_'
'tipo^_'
'runnable_'
'datamodel_'
'terms_'
'Mirror_'
'solution_'
'Other_'
'Dist_'
'unset^_'
'rest'
'plus^_'
'Paint^_'
'NI'
'running_'
'pay^_'
'delay^_'
'producer_'
'63^_'
'log'
'He'
'matrix^_'
'0x01_'
'dor_'
'Do'
'io'
'typed^_'
'Crypto^_'
'Closed^_'
'tbl^_'
'basic_'
'BA'
'cb'
'Procedure^_'
'ISO^_'
'zone_'
'mini'
'high_'
'Partner^_'
'broker^_'
'cd'
'sd_'
'fe_'
'presentation_'
'alt'
'46^_'
'Keep^_'
'Panel1^_'
'Appender_'
'invalidate_'
'UD'
'Compile^_'
'Campaign^_'
'jms_'
'ors^_'
'if'
'MD^_'
'analysis^_'
'T'
'Ne'
'pdf^_'
'nu'
'due^_'
'(%^_'
'Mark_'
'V'
'Compute^_'
'encoder_'
'factor_'
'Signal_'
'alt^_'
'Deque_'
'ap^_'
'pa'
'fhir_'
'xtext_'
'ze'
'latch_'
'binder_'
'service'
'span_'
'tests^_'
'cert_'
'Aspect^_'
'SHA^_'
'Assets_'
'INTERNAL\u^_'
'Pojo_'
'READ_'
'xsd^_'
'Quality^_'
'Helpers_'
'Thing^_'
'='
'pojo_'
'ck'
'fragment\u^_'
'scenario_'
'elements^_'
'Promise_'
'Id\u^_'
'][^_'
'58_'
'('
'loop_'
'vector^_'
'routing^_'
'Minutes_'
'trim^_'
'top'
'LE_'
'Render_'
'Bool_'
'Executable^_'
'Inverse^_'
'Alive_'
'Resolution^_'
'Ga'
'man^_'
'thoughtworks_'
'pt'
'Statements_'
'Regex^_'
'OUT_'
'general^_'
'Tex^_'
'user'
'Type\u^_'
'auto'
'Complex_'
'Conversation^_'
'PS'
'Oid_'
'nbt_'
'Invoke^_'
'Construct_'
'PI'
'pkg_'
'jooq_'
'OPERATION\u^_'
'Closeable^_'
'ge'
'INFO\u^_'
'available_'
'usage^_'
'fd^_'
'None^_'
'ist_'
'Iterables_'
'Tcp^_'
'partial^_'
'Car^_'
'ke'
'SH^_'
'lexer_'
'66^_'
'instances_'
'Hand_'
'Minecraft_'
'period^_'
'dep^_'
'image'
'Opt^_'
'oft_'
'Web'
'ue'
'preview^_'
'Lo'
'SESSION\u^_'
'Collision^_'
'def'
'DEVICE\u^_'
'Velocity^_'
'lt_'
'app'
'0x7f0'
'In'
'ce'
'No'
'construct^_'
'tro'
'DO_'
'alfresco_'
'o\u^_'
'Ho'
'ver_'
'rmi_'
'Fluid^_'
'alarm^_'
'ial^_'
'coords_'
'ksession_'
'CLIENT_'
'4f_'
'['
'rm'
'or\u^_'
'il^_'
'meta'
'utilities_'
'3f_'
'Zoned^_'
'jedis_'
'2014^_'
'Excel^_'
'always^_'
'UPDATE^_'
'lb'
'SEARCH\u^_'
'Scroll_'
'Connectivity^_'
'ATTRIBUTE_'
'OB'
'measure^_'
'persistence^_'
'pd_'
'arr^_'
'simple'
'answer^_'
'Balance^_'
'threads_'
'Packages_'
'Incorrect^_'
'aa^_'
'HE'
'disconnect_'
'lp'
'Hazelcast^_'
'pkg^_'
'AM^_'
'"%"_'
'que^_'
'Delegate^_'
'jj^_'
'pb'
'FIRST\u^_'
'cy'
'RSA^_'
'Released_'
'IF_'
'ani'
'contain^_'
'hi_'
'fixture_'
'trigger_'
'GREEN_'
'Class'
'ry'
'ICON\u^_'
'71_'
'dt^_'
'REST^_'
'CP^_'
'tp'
'op'
'dc'
'Does^_'
'NBT_'
'Notifier_'
'ele'
'im^_'
'Restore^_'
'ure^_'
'Keyboard_'
'cao^_'
'Velocity_'
'conn^_'
'pane_'
'relation^_'
'Logic^_'
'curr_'
'NORTH_'
'48^_'
'SD'
'V\u^_'
'Requested^_'
'Mail_'
'"('
'Soap^_'
'thrown_'
'aa'
'volume_'
'TYPES_'
'up'
'Like^_'
'payload^_'
'Wrapped^_'
'ao'
'sh'
'sources_'
'90^_'
'"#"_'
'DELETE\u^_'
'57_'
'Bot^_'
'Closeable_'
'Hours_'
'inventory^_'
'date'
'movie^_'
'Bag_'
'text'
'jt'
'Until^_'
'provided^_'
'68_'
'Company_'
'literal_'
'closed^_'
'Esb^_'
'from\u^_'
'add\u^_'
'Auth2^_'
'nta'
'Ticket_'
'console^_'
'NL_'
'Backend^_'
'workflow_'
'Da'
'he'
'LT_'
'net'
'Experiment^_'
'Week^_'
'robot_'
'Quota^_'
'BASE_'
'points^_'
'ub'
'metrics^_'
'72_'
'calendar^_'
'ut^_'
'Formatter^_'
'logging^_'
'Union^_'
'shadow^_'
'floor_'
'Acl^_'
'read'
'Chooser^_'
'Full_'
'Recorder_'
'ot^_'
'Abstract_'
'stock^_'
'\u\u\u^_'
'Coder_'
'checked^_'
'machine_'
'Samples_'
'Then^_'
'anim_'
'meta\u^_'
'Simple_'
'Quest^_'
'k1_'
'Vo'
'Ranges_'
'dp'
'dr_'
'au_'
'040^_'
'Methods^_'
'v\u^_'
'tmp'
'sink_'
'Activator_'
'/**^_'
'weather^_'
'ast^_'
'Indicator^_'
'what_'
'dis_'
'fecha^_'
'forward_'
'U'
'sec^_'
'AI^_'
'"['
'var4_'
'bb'
'V1^_'
'ARRAY\u^_'
'cas^_'
'Router^_'
'Specification^_'
'ea'
'dialog\u^_'
'nome_'
'Song^_'
'tions_'
'ly'
'VARCHAR^_'
'59^_'
'Digit_'
'PC'
'Panel1_'
'tail_'
'feed_'
'because^_'
'Ser^_'
'destroy^_'
'spell^_'
'DATABASE\u^_'
'V2_'
'Keeper^_'
'Db'
'big'
'Visibility^_'
'PROJECT\u^_'
'question_'
'Increment_'
'Stroke^_'
'cd^_'
'66_'
'Router_'
'horizontal^_'
'machine^_'
'power^_'
'Building^_'
'calcite_'
'Reduce^_'
'"?"_'
'chi'
'SU'
'Manage^_'
'ping^_'
'Pub^_'
'tt_'
'emit^_'
'Contacts_'
'Ports_'
'Lines^_'
'too^_'
'filename^_'
'am'
'start'
'PAGE_'
'summary^_'
'Recovery^_'
'Figure_'
'Accessible^_'
'Foo_'
'61_'
'Performance^_'
'Transformation_'
'FILTER\u^_'
'I'
'ex'
'gt'
'TIMESTAMP_'
'Bool^_'
'Album^_'
'vt'
'ue_'
'Canvas^_'
'cn'
'ic'
'Incoming^_'
'Spacing_'
'Groovy^_'
'statistics_'
'markup_'
'FROM\u^_'
'plot^_'
'3d_'
'Cipher^_'
'ng'
'act^_'
'Association_'
'rollback_'
'Text'
'obtain^_'
'sys'
'Test'
'Notes_'
'av'
'Star^_'
'F'
'UUID^_'
'61^_'
'adapters_'
'Gl^_'
'FILL_'
'bg^_'
'remaining^_'
'Journal^_'
'drag^_'
'Align_'
'base'
'Alignment^_'
'green_'
'lwjgl_'
'Expected_'
'Shader_'
'wrapped^_'
'Finish^_'
'varchar^_'
'block'
'Sti^_'
'Docker^_'
'gp'
'ia'
'||^_'
'250_'
'mc'
'given_'
'ef'
'LEFT\u^_'
'UPDATE_'
'ABLE_'
'ROOT_'
'Disabled^_'
'zk^_'
'bp_'
'Targets_'
'Upgrade^_'
'lin'
'margin^_'
'<"_'
'Follow^_'
'family^_'
'yahoo_'
'negative^_'
'SPACE_'
'67_'
'series_'
'sql'
'currency_'
'doesn^_'
'transition_'
'Seed_'
'Patient_'
'sr_'
'sel^_'
'mo_'
'IE^_'
'AU'
'∅∅'
'lhs_'
'Titled^_'
'CA^_'
'Meter^_'
'failure_'
'Break^_'
'ot_'
'decoder_'
'73_'
'ins_'
'jp'
'mgr_'
'Immutable_'
'kafka_'
'LEVEL\u^_'
'Formula^_'
'51^_'
'Na'
'threshold_'
'SS'
'storm_'
'Pin'
'AD^_'
'LS'
'Templates_'
'Classpath^_'
'reverse_'
'ze^_'
'oc_'
'Budget^_'
'geo'
'hen'
'jar_'
'Sc'
'cookie^_'
'seek^_'
'rotation^_'
'Tra'
'CSS^_'
'butterknife_'
'BYTES_'
'fo_'
'var'
'Kit_'
'Interpreter_'
'HEADER_'
'opcode_'
'AD'
'70^_'
'tf^_'
'ef^_'
'"|"_'
'to'
'Payment_'
'styleable_'
'Sms^_'
'Digits_'
'jarg1_'
'ldap^_'
'cost^_'
'CURRENT\u^_'
'smart'
'GROUP^_'
'val'
'Facet_'
'locations_'
'MD'
'62_'
'router_'
'evolveum_'
'RESPONSE\u^_'
'LA'
'ROOT\u^_'
'bf'
'fa'
'Food^_'
'Movie_'
'IF\u^_'
'Transfer_'
'sol'
'Mvc^_'
'midpoint_'
'ret'
'tc'
'ans_'
'RDF^_'
'special^_'
'model'
'course_'
'tic^_'
'Filtered^_'
'&=_'
'CP'
'Publisher^_'
'project'
'Cliente_'
'Wrap^_'
'Records^_'
'nn_'
'consume_'
'Globals_'
'9\u^_'
'nb'
'pr_'
'Operations^_'
'Movement^_'
'messaging_'
'uid^_'
'@'
'iface_'
'archive_'
'Ref'
'Ja'
'Carbon^_'
'PARENT_'
'ei'
'Mo'
'Gateway_'
'Anchor^_'
'Servers_'
'hc'
'Activation^_'
'we^_'
'trust^_'
'assertions_'
'urls_'
'Between^_'
'IC^_'
'registry^_'
'Dirty_'
'VO^_'
'omg_'
'Verification^_'
'task'
'Cube^_'
'Sentence_'
'ments_'
'positive^_'
'Gradient^_'
'65^_'
'Waiting^_'
'JAVA\u^_'
'CHAR_'
'0.0D_'
'emp^_'
'Ontology^_'
'lat^_'
'ur'
'white^_'
'V1_'
'Shutdown^_'
'Public_'
'es'
'oauth^_'
'So^_'
'Station^_'
'Patch_'
'Invoker_'
'tf_'
'Normal_'
'Key'
'dom^_'
'Percentage_'
'Offline^_'
'hd'
'tm'
'[%^_'
'85_'
'face_'
'allocate_'
'Firebase^_'
'gra'
'li_'
'ser_'
'cloudera_'
'NAMES_'
'()'
'precision_'
'cy^_'
'ig'
'soft_'
'Throw^_'
'Arrow^_'
'Lu'
'Cascade^_'
'Configurations_'
'78_'
'Three^_'
'jetty_'
'Tx_'
'PR'
'Id\u_'
'matches^_'
'xe'
'ELEMENT_'
'69_'
'Health_'
'Have^_'
'value'
'Correct^_'
'TG^_'
'Cycle_'
'Expose_'
'GC'
'mp'
'grant^_'
'warning^_'
'radio^_'
'uni'
'eri'
'attachment^_'
'Sizes_'
'rice_'
'ct'
'ABLE\u^_'
'dr'
'POST^_'
'DC'
'ver'
'Spinner^_'
'Un^_'
'Started^_'
'enterprise_'
'Unlocalized^_'
'vertical^_'
'EE'
'gerrit_'
'97_'
'Claim^_'
'BACK'
'Ds^_'
'Repeated^_'
'Days^_'
'vc'
'arr'
'Out'
'dimension^_'
'Def'
'Threshold^_'
'1234^_'
'Datagram^_'
'expressions_'
'Participant_'
'Op'
'theme^_'
'ore'
'et'
'Legacy^_'
'Rewrite^_'
'light'
'Cpu^_'
'0x00'
'Er'
'Inter'
'btn_'
'0x1'
'fmt\u^_'
'son^_'
'0.1_'
'des'
'add'
'Reason^_'
'MODEL\u^_'
'my'
'IB'
'three^_'
'rb_'
'Forge^_'
'Launcher_'
'Done^_'
'changes_'
'PT'
'HI'
'Pane1_'
'Tu'
'v1'
'Mono_'
'grammar_'
'serialization_'
'Skill_'
'eclipse^_'
'waiting^_'
'dsl_'
'complex^_'
'Framework_'
'SP^_'
'RT'
'problem_'
'LIMIT_'
'LEVEL_'
'0x7f0100'
'ba^_'
'apereo_'
'AA'
'002L_'
'/>"_'
'news^_'
'Mini^_'
'future^_'
'CE'
'Attrs_'
'idea_'
'car^_'
'Specs_'
'Multi'
'invoice^_'
'series^_'
'providers_'
'tb^_'
'Pop^_'
'Restrictions_'
'Potion^_'
'Dim_'
'Prepare^_'
'Components^_'
'mn^_'
'tag'
'GRAY_'
'Too^_'
'binary_'
'finished^_'
'ki'
'CD'
'Pretty^_'
'rv_'
'motion^_'
'er'
'average^_'
'Communication^_'
'Tick_'
'pf'
'rp'
'CS^_'
'FA'
'',"_'
'shift_'
'DATE^_'
'lt^_'
'Dev^_'
'Upload_'
'candidate^_'
'its^_'
'cn^_'
'Precision_'
'fact^_'
'Maker_'
'mapreduce_'
'hour_'
'bit_'
'Reg_'
'Characters_'
'EAST_'
'increment_'
'dispatcher_'
'Export_'
'speed^_'
'cpu^_'
').^_'
'COUNT^_'
'VARCHAR_'
'sta'
'ance^_'
'requires^_'
'dl'
'og_'
'rule'
'Replace_'
'${^_'
'ok'
'Vendor^_'
'let'
'OO'
'Aggregator_'
'Func^_'
'Members^_'
'Roles^_'
'by'
'App'
'Avro^_'
'certificate^_'
'tx'
'0x2'
'olat_'
'150'
'datatype_'
'char'
'ES\u^_'
'pk^_'
'ine^_'
'blue^_'
'RS^_'
'state'
'datasource_'
'UT'
'Name'
'struct^_'
'should\u^_'
'Lab^_'
'cipher_'
'Receive_'
'Recent^_'
'connector^_'
'&&^_'
'IT'
'known^_'
'export_'
'confirm^_'
'facade_'
'ml'
'BB_'
'96_'
'reload^_'
'cassandra_'
'Li'
'xc'
'Traffic^_'
'ae_'
'spark_'
'yo'
'logger^_'
'share_'
'Ship^_'
'Disable^_'
'Buffers_'
'Projection^_'
'HOST_'
'Projects_'
'2d_'
'Me_'
'ind_'
'as'
'Dict^_'
'bouncycastle_'
'AUTO\u^_'
'Logs_'
'pay'
'PLAIN_'
'fn'
'redis_'
'vo'
'start\u^_'
'health^_'
'bootstrap_'
'call'
'antlr_'
'EO'
'con'
'Gra'
'ko'
'I18^_'
'bb^_'
'Ar'
'Actual_'
'ber'
'birt_'
'asset_'
'Frames_'
'sf'
'75^_'
'Finish_'
'OD'
'Elem^_'
'Unit'
''-'_'
'Accessibility^_'
'num'
'so_'
'S20_'
'Datatype^_'
'ore_'
'0.5'
'JOB\u^_'
'ta'
'jd'
'GO'
'reading^_'
'COLUMN_'
'fe'
'BOLD_'
'tom'
'pack^_'
'inv_'
'Looper_'
'RP'
'AC^_'
'Interest^_'
'Wire^_'
'turn^_'
'Benchmark^_'
'ive_'
'WRITE\u^_'
'ase_'
'ut'
'Injection^_'
'monitor^_'
'Bg^_'
'out'
'itr_'
'Coord^_'
'zi'
'(*)^_'
'Cd'
'pad^_'
'string'
'v1\u^_'
'Go'
'"''
'choose^_'
'iv_'
'101_'
'Dto^_'
'')^_'
'statements_'
'LABEL\u^_'
'2015^_'
'ga^_'
'ol_'
'dd'
'Historic^_'
'Functional^_'
'0.01'
'Sink^_'
'0.9'
'Offsets_'
'UNIQUE_'
'If_'
'bc^_'
'Fill_'
'39^_'
'Preview_'
'ian^_'
'br'
'actor^_'
'present^_'
'TEXTURE\u^_'
'management^_'
'SINGLE\u^_'
'Hidden^_'
'ON'
'Shader^_'
'nombre_'
'Authenticator_'
'Notes^_'
'Square_'
'card'
'Tuple2_'
'sdf_'
'Callable^_'
'AS\u^_'
'relation_'
'ka_'
'secondary^_'
'Reset_'
'par2_'
'uri'
'Make^_'
'']"_'
'iv^_'
'then_'
'Refs_'
'Pin^_'
'VALUES_'
'javascript_'
'231^_'
'Inspector_'
'p1'
'registration^_'
'NG^_'
'align^_'
'Configurator_'
'absolute^_'
'byte'
'N1^_'
'space'
'bc'
'aux_'
'mt_'
'Clazz_'
'use_'
'Je'
'ku'
'zoom_'
's2'
'This_'
'77_'
'Particle^_'
'Resp_'
'publisher_'
'Lexer_'
'proc^_'
'Human^_'
'000000000000000^_'
'wa'
'last\u^_'
'"∅∅∅∅∅∅"_'
'DE^_'
'"+^_'
'keycloak_'
'FACTORY_'
'Else^_'
'PARAM_'
'cmp_'
'pref_'
'checker_'
'way_'
'translation_'
'um'
'normalize_'
'here^_'
'JS'
'mod'
'MC^_'
'jr'
'600_'
'theme_'
'Uni'
'Requirement^_'
'grid'
'ring^_'
'Cards_'
'mm_'
'84_'
'imp_'
'Convert_'
'rdf^_'
'gr_'
'actions^_'
'lf'
'Measurement^_'
'JC^_'
'rotation_'
'Inspection^_'
'bool^_'
'1000^_'
'OID_'
'chain^_'
'bridge_'
'6.'
'76_'
'){^_'
'0x00000004_'
'Inst_'
'Colour_'
'67^_'
'sim^_'
'Pad_'
'Procedure_'
'seconds^_'
'Log'
'om^_'
'\\\\'
'new'
'gui'
'Escape^_'
'sr'
'gl'
'Tr'
'END^_'
'logical^_'
'po_'
'injector_'
'pd'
'dot_'
'         ^_'
'zy'
'RIGHT\u^_'
'dan'
'rgb_'
'Capability^_'
'Levels_'
'PD'
'lat'
'Lista^_'
'instruction_'
'TU'
'i2'
'Mojo^_'
'Slots_'
'over'
'gg'
'6f_'
'FML^_'
'completion^_'
'cell'
'compiler^_'
'IS'
'that\u^_'
'ju'
'Markup^_'
'V2^_'
'var5_'
'Map'
'Regions_'
'quote^_'
'At'
'004^_'
'Cp'
'planet\u^_'
'prepare_'
'Mask^_'
'Ro'
'Monitoring^_'
'IM'
'marker^_'
'Lambda^_'
'post'
'tab\u^_'
'unexpected^_'
'od'
'Err_'
'Mp'
'ina'
'Scenario_'
'related^_'
'Conversion_'
'FF'
'patch^_'
'interceptor_'
'Assign^_'
'CONNECTION\u^_'
'Phrase_'
'MSG_'
'$\u\u^_'
'subscription_'
'sv'
'ty'
'health_'
'Field'
'cards_'
'gd'
'sequenceiq_'
'cal'
'Toggle_'
'touch^_'
'ERR\u^_'
'Sa'
'03_'
'IND^_'
'Removed^_'
'Poll^_'
'5L_'
'ita'
'Broadcast_'
'199'
'CT'
'android'
'Release_'
'misc_'
'Fs^_'
'0.7'
'processed^_'
'CONTEXT\u^_'
'BC'
'sound_'
'SOUTH_'
'rules^_'
'ING^_'
'Picture_'
'Of'
'modifiers_'
'Ed'
'Sent^_'
'CASE\u^_'
'dictionary_'
'json'
'Zoo^_'
'Hide^_'
'Ws^_'
'projection_'
'sw'
'gb'
'4L_'
'fo'
'DEBUG\u^_'
'ys'
'GL_'
'Collector^_'
'abs^_'
'train^_'
'sleep^_'
'Hierarchy_'
'requests_'
'adempiere_'
'String'
'bp'
'js'
'Clock^_'
'branch_'
'viewers_'
'tasks^_'
'Formats_'
'Possible^_'
'Bin^_'
'Pack^_'
'mf'
'redis^_'
'Ready^_'
'numbers_'
'signal^_'
'/=_'
'Spark^_'
'exchange^_'
'occurred^_'
'ye'
'tab'
'ORDERED_'
'AM'
'primitive^_'
'tor'
'Lat_'
'id'
'github^_'
'LDAP^_'
'and'
'P'
'bool_'
'stu'
'processors_'
'Rich^_'
'Download_'
'AR^_'
'BO_'
'ROLE\u^_'
'EP^_'
'ORDER\u^_'
'alt_'
'hot'
'coffee\u^_'
'RD'
'ignore_'
'xu'
'AV'
'Block'
'setting_'
'db'
'Undo^_'
'BASELINE_'
'74_'
'play'
'<'
'non'
'Checks_'
'Pre'
'cert^_'
'source'
'Indent_'
'INFINITY_'
'Try^_'
'Private_'
'Missing_'
'79_'
'BLUE_'
'Usuario^_'
'bindings_'
'npc_'
'deploy^_'
'ay_'
'keyword_'
'Headers^_'
'D'
'go'
'che'
'Auto'
'bd_'
'fu'
'gd_'
'semantic^_'
'Weights_'
'MX^_'
'I18n_'
'Jobs^_'
'var2'
'Per'
'music^_'
'blog_'
'Partitions_'
'Clients_'
'proto^_'
'Returns^_'
'all'
'Swap^_'
'pre'
've'
'Weighted^_'
'Deploy^_'
'proc_'
'Exporter_'
'tf'
'TL^_'
'targets_'
'gc'
'accounts_'
'dd_'
'Dirs_'
'JO'
'axis2_'
'TARGET\u^_'
'sess_'
'software_'
'Measured^_'
'verbose_'
'bio'
'yt'
'consume^_'
'"∅∅∅∅∅"_'
'capture_'
'oper_'
'`'
'Arguments^_'
'di'
'thing_'
'Animator^_'
'demo'
'margin_'
'∅∅∅∅∅∅∅^_'
'generic_'
'planner_'
'dp^_'
'Absent_'
'hp'
'Bill^_'
'activities_'
'lla'
'Devices_'
'Hidden_'
'realm^_'
'Maple^_'
'Station_'
'pg'
'iv\u^_'
'Capacity^_'
'Rel_'
'DU'
'fmt_'
'PUT_'
'Spatial^_'
'Dialect_'
'Translate^_'
'Training^_'
'int'
'Alt_'
'writer^_'
'Red_'
'America^_'
'hidden^_'
'sco'
'offer_'
'Scoped_'
'Initialization_'
'Dim^_'
'Rating^_'
'Aspect_'
'tn'
'patterns_'
'Code'
'pa_'
'nat'
'successfully^_'
'Triple_'
'mg'
'RC'
'Strict^_'
'TRAILING_'
'Percent^_'
'der'
'age'
'metamodel_'
'Exec_'
'graph'
'exp'
'sales^_'
'testing^_'
'Reverse^_'
'ics_'
'att^_'
'Int32_'
'<-^_'
'ax_'
'poll^_'
'desired^_'
'Os^_'
'Must^_'
'SELECT\u^_'
'ed'
'PROCESS\u^_'
'ary^_'
'iz'
'Ds'
'Locator^_'
'Self_'
'for'
'\u\u\uCARET\u\u\u'
'Rename^_'
'Calc_'
'Gi'
'Documents_'
'await^_'
'38^_'
'L2_'
'rd'
'Age^_'
'Sec^_'
'os'
'HS'
'Plugins_'
'material^_'
'Wheel^_'
'squareup_'
'Voice^_'
'passed^_'
'Case\u_'
'Fix_'
'BLOCK_'
'ya'
'utility_'
'ITEM_'
'Ec'
'UN'
'Identifiers_'
'rf'
'Correct_'
'Remaining_'
'velocity_'
'power_'
'"?^_'
'Pool\u^_'
'MENU\u^_'
'Sec_'
'Scanner^_'
'Elasticsearch^_'
'111^_'
'forge_'
'inc^_'
'Tv^_'
'Ge'
'OPTION\u^_'
'Called_'
'Attack^_'
'SV'
'merged^_'
'fast^_'
'ue^_'
'.0'
'Butter^_'
'nr^_'
'lst^_'
'Zoom_'
'sub'
'Shift_'
'Got^_'
'Contexts_'
'tb'
'padding_'
'back'
'ist^_'
'\\"]}"_'
'Social^_'
'95_'
'popup_'
'jb'
'descriptor^_'
'reporter_'
'ki_'
'NETWORK\u^_'
'TS'
'Rectangle2^_'
'INT^_'
'OG'
'broadcast^_'
'PDF^_'
'EVENT_'
'row'
'PACKAGE\u^_'
'it'
'creator_'
'MEDIA\u^_'
'Prism^_'
'ous^_'
'Searcher_'
'Destroy^_'
'catch^_'
'method\u^_'
'Knife_'
'ring_'
'Ring^_'
'subtract_'
'vn'
'synset^_'
'Changes^_'
'segments_'
'81_'
'buttons_'
'Ta'
'...^_'
'interpreter_'
'Un'
'86^_'
'path'
'td_'
'ning^_'
'javax^_'
'foreign^_'
'Freq_'
'rdf_'
'fm'
'rpc^_'
'Shop^_'
'INTERVAL^_'
'each^_'
'Geo'
'DL'
'we'
'MT'
'parsing^_'
'good^_'
'JD'
'groovy_'
'dev'
'Coverage^_'
'of\u^_'
'lu'
'Spot^_'
'hdfs_'
'Label2_'
'ol^_'
'scheduled^_'
'Ap'
'Conflict^_'
'B'
'cms_'
'Allocation_'
'jobs_'
'drill_'
'Tables^_'
'Back'
'sc'
'98_'
'Effective^_'
'rit'
'Dispatch^_'
'Keywords_'
'Net_'
'Var'
'pub^_'
'GC^_'
'ode'
'te'
'0.8'
'topology_'
'leaf^_'
'Re^_'
'Repeat^_'
'Delimiter_'
'search'
'ref'
'bt'
'ant'
'main\u^_'
'referenced^_'
'xf'
'bulk^_'
'89_'
'URI\u^_'
'ns'
'CE_'
'tok_'
'123'
'processor^_'
'message'
'Subscribe_'
'Macro^_'
'OFF_'
'M'
'xx_'
'input\u^_'
'Implicit^_'
'cv'
'LOCATION\u^_'
'fore'
'Profiles_'
'ep_'
'KA'
'Solution^_'
'=?^_'
'issue_'
'tuple^_'
'Symbolic^_'
'long'
'receiver^_'
'CS'
'Mocks_'
'wiki^_'
'large^_'
'Drawer_'
'src'
'vnd^_'
'Jvm^_'
'icons^_'
'Fee^_'
'Object'
'Mediator^_'
'star'
'company_'
'User'
'Toolbar^_'
'{}'
'Classification^_'
'incoming^_'
'RI^_'
'Histogram_'
'Solver_'
'Clause^_'
'error'
'ny'
'Ping^_'
'car_'
'oh'
'Nullable^_'
'Is'
'during^_'
'Drive^_'
'Extract^_'
'Inbound^_'
'MINUTE_'
'SOURCE_'
'uf'
'7f_'
'DISPLAY\u^_'
'je_'
'kafka^_'
'cw'
'zz'
'que_'
'Internet^_'
'eli'
'Authority^_'
'struts_'
'Nanos_'
'nl'
'Attach^_'
'news'
'Sent_'
'normalize^_'
'Vi'
'dist^_'
'queries_'
'88_'
'jf'
'mor'
'adjust^_'
'lab^_'
'eu'
'eb'
'Availability^_'
'ped^_'
'surface^_'
'Datastore^_'
'assignment^_'
'LONG\u^_'
'DS^_'
'ads^_'
'choice_'
'Proc^_'
'j1_'
'label'
'om'
'NO_'
'locks_'
'Cfg_'
'millis_'
'errors^_'
'sel_'
'jivesoftware_'
'bos_'
'im'
'AUTH\u^_'
'declare^_'
'Depth^_'
'PRE'
'Vals_'
'\u\u_'
'third^_'
'Aggregator^_'
'Biome^_'
'Relative_'
'Variables^_'
'xy_'
'win^_'
'So'
'Bootstrap^_'
'71^_'
'power'
'black^_'
'Unit4^_'
'LAYOUT\u^_'
'CREATE_'
'pause_'
'audio_'
'Hot^_'
'Goal^_'
'xi'
'Dashboard^_'
'entries^_'
'ac'
'TRA'
'AP^_'
'wr'
'ling^_'
'ext'
'subscriber_'
'car'
'Ya'
'face^_'
'closed_'
'determine^_'
'HSSF^_'
'Behavior^_'
'Quality_'
'usuario_'
'CATEGORY\u^_'
'ul'
'UNIT\u^_'
'.*"_'
'Sd'
'Unicode^_'
'6'
'PUBLIC_'
'free'
'SL'
'Band^_'
'Drawing^_'
'Over_'
'consume\u^_'
'Images^_'
'Margin^_'
'UI\u^_'
'pi'
'WRAP\u^_'
'AA^_'
'USERNAME_'
'WITH^_'
'AB'
'bar'
'On'
'Dump^_'
'no\u^_'
'ings^_'
'INF^_'
'Ag^_'
'solver_'
'album^_'
'aggregate^_'
'Clip^_'
'JOINER_'
'inline^_'
'Sn'
'TS_'
'nc_'
'List'
'dependency_'
'83_'
'publisher^_'
'blue'
'hash'
'zu'
'CI'
'tb_'
'tabs_'
'Factor^_'
'force_'
'managed^_'
'instructions_'
'or'
'0.3'
'Goods^_'
'IDENTIFIER_'
'Exist^_'
'ticket^_'
'browser^_'
'ator_'
','^_'
'Affine^_'
'activemq_'
'Minecraft^_'
'Rank^_'
'Nls_'
'Violation^_'
'Pack_'
'la'
'.9'
'Band_'
'Direction^_'
'standard_'
'IMAGE_'
'AP'
'SECOND_'
'MC'
'ca'
'hide_'
'SP'
'Hint^_'
'0x7f0200'
'ti^_'
'Choose^_'
'4.'
'label\u^_'
'run'
'eni'
'Outputs_'
'effect_'
'ks'
'mobile^_'
'0.5F_'
'updated_'
'rec^_'
'ENC'
'sd'
'dependencies_'
'dra'
'docs_'
'pe^_'
'Node'
'wo'
'extended^_'
'Processing_'
'tree'
'Was^_'
'Wizard_'
'okhttp3_'
'Air'
'comp'
'SCHEMA\u^_'
'days_'
'normal_'
'Alarm_'
'NA^_'
'Ct^_'
'Flavor_'
'persistent^_'
'so'
'streams_'
'url'
'Prev^_'
'((^_'
'lon_'
'Green_'
'Ke'
'avro_'
'cx'
'Bug^_'
'den^_'
'star_'
'ance_'
'IP'
'Detection^_'
'Vcs^_'
'ode^_'
'live^_'
'dy'
'Cat^_'
'qualified^_'
'GT'
'Mat'
'*/\\^_'
'pk_'
'Comm^_'
'pl'
'Mvc_'
'Expand^_'
'Ob'
'sam'
'deprecation^_'
'Cas^_'
'inject^_'
'DT^_'
'Allocator_'
'jet'
'tion'
'Fails_'
'Pc'
'SR'
'link'
'Nu'
'sti^_'
'hub_'
'Type'
'mes'
'mongo^_'
'Facebook^_'
'tk_'
'NOTIFICATION\u^_'
'zm'
'4\u_'
'launcher_'
'Quantity^_'
'Cases_'
'tex^_'
'pause^_'
'AL^_'
'time\u^_'
'Decode^_'
'thrift^_'
'])'
'invocation^_'
'Ba'
'opens'
'DF'
'googleads_'
'LOG'
'Styled^_'
'navigation^_'
'nar'
'mysql^_'
'Opaque_'
'gv'
'Gender_'
'ter'
'gateway_'
'xwiki_'
'frame'
'composite^_'
'STORE\u^_'
'css_'
'Cli^_'
'nome^_'
'hour^_'
'yu'
'OPEN\u^_'
'DM'
'ata_'
'Nb^_'
'tu'
'kd'
'za'
'Where_'
'itemstack_'
'sb^_'
'BYTE\u^_'
'd1'
'Compression^_'
'']'
'undefined^_'
'thing^_'
'Sr'
'Zk^_'
'Individual_'
'IRI_'
'|"_'
'Ps'
'preferred^_'
'chooser_'
'std^_'
'Song_'
'CF^_'
'half^_'
'MP'
'com'
'step'
'caller_'
'bro'
'Ali'
'Views^_'
'client'
'configured^_'
'measure_'
'trade^_'
'0x000'
'Interceptor^_'
'demo^_'
'ak'
'bg_'
'isis_'
'Arc^_'
'solr_'
'IG'
'0xc'
'UB'
'msg'
'most^_'
'extractor_'
'Ni'
'doc'
'BB'
'least^_'
'WRITE_'
'CU'
'/%^_'
'atom^_'
'gin'
'CHECK\u^_'
'Frequency^_'
'Slf4j_'
'===============^_'
'VALUE^_'
'SUFFIX_'
'days^_'
'Cassandra^_'
'f1'
'name'
'LOAD\u^_'
'sse'
'padding^_'
'custom_'
'training^_'
'Assertion_'
'More_'
'CN'
'ap'
'LU'
'different^_'
'Color'
'hy'
'soap_'
's1'
'kb'
'Es'
'Quote_'
'interrupt_'
'an'
'phase^_'
'not'
'middle^_'
'p3_'
'Configurer_'
'Const^_'
'Ra'
'il'
'ign'
'False^_'
'Lua^_'
'eo'
'ate'
'indexes_'
'ACC'
'Grammar_'
'loc'
'pretty^_'
'rp_'
'Scalar_'
'attachment_'
'FO'
'ja^_'
'repeat^_'
'student_'
'Python^_'
'lect'
'white_'
'two_'
'PO^_'
'cloud'
'her'
'0.02'
'kh'
'photo_'
'tcp^_'
'})'
'market^_'
'Consumes_'
'integer_'
'var6_'
'ian'
'cm^_'
'Good^_'
'ACTIVE_'
'Whitespace_'
'concept^_'
'Dense^_'
'Labels^_'
'Java_'
'ments^_'
'bg'
'bd'
'.1'
'Derived^_'
'ama'
'Indented^_'
'des^_'
'Quietly_'
'PD^_'
'tv'
'Field\u^_'
'ent'
'Sha'
'nf'
'lab'
'sqlite_'
'logged^_'
'implementation_'
'Me^_'
'Configurable^_'
'ug'
'REC'
'Entities^_'
'ALIGN\u^_'
'ctx^_'
'prop'
'Minor^_'
'jarg1\u_'
'keyword^_'
'Tip_'
'ep^_'
'JA'
'tick^_'
'ess^_'
'ace'
'Disk_'
'rg'
'Ss'
'linear^_'
'less_'
'Sub_'
'.6'
'I18n^_'
'gt^_'
'uk'
'slice_'
'VO'
'Desktop^_'
'();^_'
'controllers_'
'Cloneable_'
'Spell^_'
'positions_'
'Scaling^_'
'ntk_'
'replay_'
'=\\"'
'Ld'
'Merge_'
'Old_'
'Void^_'
'nifi_'
'pnl^_'
'open'
'Outcome_'
'Foreground^_'
'En'
'ev'
'266^_'
'Ma'
'pixels_'
'fast'
'shi'
'Ticks_'
'del'
'Creating^_'
'ks^_'
'candidates_'
'easy'
'Reading^_'
'nbsp^_'
'"{[^_'
'strip^_'
'fine_'
'xl'
'fp_'
'server'
'sl'
'Slice^_'
'oc^_'
'LO'
'translation^_'
'>=^_'
'FAILURE_'
'fin'
'Scores_'
'ble'
'formatted^_'
'jl'
'#'
'Val'
'prototype_'
'Scientific^_'
'bitmap^_'
'reporting_'
'Instrument^_'
'BI'
'alt1'
'Singleton^_'
'0xa'
'ST\u^_'
'Disable_'
'NC'
'04_'
'img'
'(\\\\^_'
'jo_'
'sensor_'
'OA'
'yd'
'View'
'mappings_'
'HO'
'tg'
'yes^_'
'yarn_'
'dor^_'
'hibernate^_'
'Grant^_'
'800_'
'Cur^_'
'x1'
'df^_'
'Diagnostic^_'
'Co^_'
'gen'
'projects_'
'SO'
'Et'
'tagext_'
'Successful_'
'Yaml^_'
'p0_'
'Exactly_'
'INTER'
'Win^_'
'Playback^_'
'gm'
'ui'
'flowable_'
'PER'
'Bar'
'0xf'
'TIMEOUT\u^_'
'relauncher_'
'temp'
'cont_'
'principal^_'
'Hook^_'
'c2'
'AT'
'110_'
'8f_'
'Um'
'tore_'
'delimiter_'
'bo'
'jc'
'sim'
'nombre^_'
'BL_'
'COUNT\u^_'
'End'
'ion'
'bl'
'Base'
'Opcode_'
'ack^_'
'ud'
'ori'
'dispatch_'
'at'
'point'
'va'
'port'
'pv'
'Analytics^_'
'dbl^_'
'Cv^_'
'hn'
'Backend_'
'AV^_'
'app\u^_'
'vp'
'seq'
'Requires^_'
'MI^_'
'Dates_'
'Implementation^_'
'sar'
'value\u^_'
'':'_'
'linked^_'
'sha'
'continue^_'
'EXIT\u^_'
'DD'
'Caching^_'
'AC'
'SM'
'"\u\u\uCARET\u\u\u^'
'Syntax_'
'82_'
'zer_'
'Cn'
'Gp'
'180'
'Square^_'
'loan^_'
'matched^_'
'UNSUPPORTED_'
'Recipient^_'
'Visitor^_'
'Water^_'
'sm'
'elapsed^_'
'.3'
'Robot_'
'Workbook_'
'Pro^_'
'Tmp_'
'WE'
'quick^_'
'biz_'
'green^_'
'array'
'creating^_'
'(''
'ger'
'106^_'
'TO'
'DT'
'5.'
'AT\u^_'
'tl_'
'};"_'
'Front^_'
'CMD\u^_'
'ab'
'nlp_'
'92_'
' _'
'forms_'
'OUT\u^_'
'iso'
'not\u^_'
'Ip'
'NE'
'US\u^_'
'ess_'
'manage^_'
'mb_'
'keystore^_'
'sl_'
'sakaiproject_'
'Painter_'
'Dl'
'ja_'
'Hosts_'
'Blocks^_'
'None_'
'Audio_'
'Ret_'
'"∅∅^_'
'xs'
'jan'
'modifier_'
'ping_'
'GET'
'Car_'
'State'
'conditions_'
'xt'
'Major^_'
'Misc^_'
'can'
'Album_'
'COMP'
'bee'
'Cr'
'Anonymous^_'
'ona'
'oe'
'SD^_'
'rm^_'
'ED'
'NO'
'NT'
'mid'
'el'
'pad_'
'ea^_'
'Multiplier_'
'dimensions_'
'yi'
'Clean^_'
'Manual^_'
'6L_'
'va^_'
'recycle_'
'ZE'
'jk'
'Regular^_'
'bra'
'Assessment^_'
'Event'
'Footer^_'
'Compact^_'
'EXTERNAL\u^_'
'objects^_'
'91_'
'lb^_'
'IT_'
'tis'
'Jackson^_'
'Accounts_'
'ship_'
'ADD_'
'studio_'
'EL^_'
'retrofit2_'
'PIN'
'Cs'
'Lint_'
'Model'
'dw'
'Buf^_'
'hpl_'
'Viewport^_'
'Degree_'
'wei'
'CHECK'
'Caret^_'
'Up'
'default\u^_'
'POSITION_'
'Cash^_'
'SCREEN\u^_'
'MIN_'
'video_'
'bm'
'active'
'Item'
'son_'
'Comments^_'
'=?"_'
'ga'
'animation^_'
'projects^_'
'0xe'
'allocate^_'
'Topology_'
'Elastic^_'
'();\\^_'
'st'
'87_'
'counts_'
'Sip^_'
']{^_'
'never_'
'lines^_'
'ser^_'
'Daily^_'
'E1_'
'To'
'Fe'
'enum'
'"*^_'
'($^_'
'ATION_'
'next'
'148'
'ice'
'CHANNEL\u^_'
'QUERY_'
'px_'
'Expiration^_'
'EP'
'there^_'
'BIGINT_'
'pri'
'ghidra_'
'naming_'
'lambda_'
'black_'
'Schedulers_'
'LE\u^_'
'content'
'Delayed_'
'Receipt^_'
'spy_'
'oma'
'mask^_'
'∅∅∅∅∅∅∅∅^_'
'Deserialization^_'
'DOCUMENT\u^_'
'CM'
'Dict_'
'86_'
'Defs_'
'global_'
'capture^_'
'atom_'
'tax^_'
'A2'
'he^_'
'ln'
'IA'
'Ic'
'EA'
'do'
'Subscribe^_'
'records^_'
'Bo_'
'her^_'
'LITERAL_'
'Play_'
'OM'
'Ssh^_'
'PERMISSION\u^_'
'Friend^_'
'encrypted^_'
'Fk^_'
'n'
'sheet^_'
'mean_'
'invalidate^_'
'xt_'
'sur'
'EB'
'jscomp^_'
'drip_'
'101^_'
'ld'
'publish_'
'Pause^_'
'Building_'
'EQUAL_'
'ib_'
'127_'
'dm'
'ine_'
'title\u^_'
'77^_'
'"∅∅∅∅∅∅∅∅∅∅∅∅∅∅^_'
'Conn^_'
'super'
'PP'
'a1'
'STREAM\u^_'
'method'
'pan'
'INTERVAL_'
'Wa'
'part'
'Sets^_'
'Os_'
'gateway^_'
'SF'
'table'
'Net'
'art'
'While^_'
'redhat_'
'Ca'
'Panel'
'delivery^_'
'vfs_'
'R1_'
'nr'
'UNKNOWN\u^_'
'tc^_'
'ling_'
'Unknown_'
'Cart^_'
'AR'
'jfree_'
'lv\u^_'
'sc^_'
'quote_'
'ara'
'ir'
'Diagram_'
'aaaaaaaaaaaaaaa^_'
'Superclass_'
'caret^_'
'zstack_'
'Encrypted^_'
'Paragraph_'
'http'
'TLRPC_'
'ROW\u^_'
'SVG^_'
'sto'
'Checkpoint^_'
'72^_'
'solr^_'
'OR'
'EXISTS^_'
'Work'
'qi'
'inf_'
'=>^_'
'Presentation^_'
'configs_'
'head'
'<=^_'
'kc'
'Txt^_'
'rc^_'
'Since^_'
'360_'
'game'
'Craft^_'
'Assigned^_'
'fb^_'
'JP'
'dv'
'Blue^_'
'mu'
'mark'
'processing_'
'ST'
'zen'
'x0_'
'obj'
'art_'
'cloud\u^_'
'EG'
'subs'
'Snackbar_'
'pn'
'Txt_'
'Hadoop^_'
'TS^_'
'Different^_'
'Windows_'
'kill^_'
'exc'
'Predicates_'
'Turn^_'
'ATION\u^_'
'player'
'Units^_'
'Jo'
'Annotations^_'
'Sur'
'Clone_'
'temp\u^_'
'BYTE_'
'vd'
'Decl^_'
'Way^_'
'cho'
'Directed^_'
'ne'
'restart^_'
'pin'
'ben'
'ARRAY^_'
'TE'
'sentence_'
'nv'
'controls_'
'87^_'
'Interactions_'
'al'
'Particle_'
'Hu'
'times^_'
'ql^_'
'desc'
'FRAME\u^_'
'Nome_'
'oi'
'IT^_'
'Pick^_'
'TM'
'lt'
'image\u^_'
'Tiles_'
'El'
'Membership^_'
'lm'
'DOUBLE\u^_'
'Iterable^_'
'Rp'
'hex_'
'download_'
'purchase^_'
'Present^_'
'Bot_'
'DATA^_'
'PA'
'par3_'
'mk'
'Normalized^_'
'Numeric_'
'stream\u^_'
'Wallet^_'
'Counters_'
'ela'
'h\u^_'
'responses_'
'yn'
'ie'
'Built^_'
'7L_'
'TC^_'
'INVISIBLE_'
'Compare_'
'Ci'
'annotated^_'
'49^_'
'dictionary^_'
'schemas^_'
'NM'
'Features^_'
'sorted_'
'Layers_'
'ger_'
'elo'
'ora'
'ORDER_'
'Contents^_'
'0.6'
'STYLE\u^_'
'Aggregation_'
'nav^_'
'ga_'
'FLAG_'
'itu'
'SHORT\u^_'
'auth'
'i3_'
'xm'
'wc'
'wsdl^_'
'har'
'THREAD\u^_'
'BOTH_'
'pa^_'
'scene^_'
'fe^_'
'httpclient_'
'ef_'
'')'_'
'Mi'
'Authorization_'
'gene^_'
'RM^_'
']}\\^_'
'Polygon^_'
'Edm^_'
'Links^_'
'portlet_'
'cl^_'
'110'
'Software^_'
'LC'
'Ad'
'Insn^_'
'Reentrant^_'
'rel'
'ci^_'
'hyracks_'
'Startup^_'
'Nombre_'
'Accept_'
'fx_'
'Creator^_'
'urn_'
'em'
'quantity^_'
'gs^_'
'din'
'Concrete^_'
'subscribe^_'
'Executable_'
'recipe_'
'Uniform^_'
'Goal_'
']'
'AT^_'
'GP'
'Dc'
'Real_'
'phase_'
'Blue_'
'Ratio^_'
'authorization_'
'td'
'create\u^_'
'wp'
'revision_'
'si^_'
'Attach_'
'article_'
'Gradle^_'
'lot'
'retrofit_'
'GI'
'Sessions_'
'Fa'
'autoconfigure_'
'cmu_'
'prot_'
'Fetcher_'
'license^_'
'"--------------^_'
'Blog^_'
'search\u^_'
'Ability_'
'For'
'ua_'
'ai'
'Fragments_'
'mail'
'Sm'
'Ljava^_'
'={^_'
'125'
'minutes_'
'Z\u^_'
'As'
'Terms^_'
'Con_'
'Sale^_'
'Rec^_'
'Statistic^_'
'Tooltip_'
'OS'
'numeric^_'
'Primary_'
'Hand^_'
'"/{^_'
'PROPERTIES_'
'serialized^_'
'Interpreter^_'
'Rep_'
'SI'
'Protection^_'
'020^_'
'Rd'
'Table'
'coord_'
'Accounts^_'
'alo'
'2020^_'
'duplicate^_'
'');"_'
'Post'
'C1'
'BOTTOM_'
'TRUE^_'
'Subs'
'Tele'
'Txn^_'
'err'
'TRANSIENT_'
'93_'
'dict^_'
'"/'
'arquillian_'
'Cardinality_'
'Datas_'
'Parser$stack_'
'Visit_'
'Directories_'
'pp^_'
'custom'
'portlet^_'
'mac^_'
'ints_'
'Beans^_'
'Mt'
'sprite_'
'∅∅∅'
'Presentation_'
'Replica^_'
'Need^_'
'np'
'Orders_'
'vs_'
'Gr^_'
'fi'
'pra'
'Offer^_'
'Mutation_'
'air'
'Dest^_'
'Solver^_'
'Cl'
'Watch_'
'leave^_'
'Lon_'
'N'
'incorrect^_'
'Restriction_'
'les_'
'receive_'
'Disposable_'
'mel'
'Descriptions_'
'UR'
'ym'
'Ms'
'Compat\u^_'
'php^_'
'rd^_'
'FL'
'modules^_'
'S2^_'
'bot^_'
'pe'
'MAN'
'EOF_'
'Me'
'lineitem^_'
'ame^_'
'Matches^_'
'Azure^_'
'xa'
'tele'
'Soy^_'
'Timed^_'
'Letter^_'
'mvp_'
'KEY'
'197'
'Ctrl^_'
'bri'
'Err^_'
'FUNCTION\u^_'
'ler_'
'pass'
'tim'
'Sta'
'bre'
'j'
'look^_'
'organization_'
'():^_'
'Modification_'
'fb_'
'Dispatcher^_'
'ite_'
'ss'
'contacts_'
'union_'
'ore^_'
'Nr_'
'"<"_'
'POST'
'scratch_'
'fire_'
'198'
'Slide^_'
'Survey^_'
'Sin'
'Parameterized_'
'modified_'
'van'
'employee_'
'GL'
'mean^_'
'dataflow_'
'cleanup^_'
'Capture_'
'uu'
'Redirect_'
'Ts'
'topology^_'
'oni'
'MM'
'Alive^_'
'bs^_'
'Letter_'
'fr^_'
'Pipe_'
'LT'
'Inf^_'
'plugins^_'
'par1_'
'Correlation^_'
'see^_'
'Errors^_'
'xd'
'Emitter_'
'Checksum_'
'JPA^_'
'KI'
'CI^_'
'qu'
'assume^_'
'defaults_'
'AG'
'Ring_'
'Rotate^_'
'0xb'
'PL'
'visited_'
'Department_'
'73^_'
'Charset^_'
'701'
'TION_'
'micro'
'Pd'
'COMMENT_'
'shop_'
'gemstone_'
'tin'
'experiment^_'
'Con^_'
'hi'
'Rec_'
'Set'
'cache'
'sa^_'
'templates_'
'sis_'
'IE'
'twitter_'
'Share_'
'manifest^_'
'swap^_'
'th'
'{},^_'
'qname_'
'fix_'
'ice_'
'STRING^_'
'Loc^_'
'BIT_'
'100'
'CR'
'sx_'
'102_'
'undo^_'
'ure'
'Path'
'Arg'
'layers_'
'DS'
'di^_'
'Operand^_'
'dot'
'IO'
'removed_'
'PO_'
'ri^_'
'Md'
'be'
'declared^_'
'xyz_'
'rt'
'Acceptor_'
'Touch_'
'lh'
'f3_'
'day'
'aw'
'delegate^_'
'weights_'
'\\","_'
'PARAMETER_'
'Shape'
'Flush_'
'AND_'
'Feel^_'
'inv^_'
'mac'
'wm'
'Tre'
'yr'
'Office^_'
'Id'
'ph'
'comm'
'A6'
'kit^_'
'dump_'
'Ev'
'score'
'Clear_'
'off'
''"'_'
'SC'
'Runnable^_'
'LINK\u^_'
'Coordinator^_'
'bla'
'Au'
'RA'
'WI'
'feedback^_'
'idega_'
'aba'
'pointer^_'
'cr'
'acceptor_'
'"{'
'Ut'
'276^_'
'Append^_'
'operators_'
'svg^_'
'RN'
'book'
'8L_'
'MB^_'
'sid_'
'iss'
'fh'
'sms^_'
'ignored^_'
'Clip_'
'll\u^_'
'ft^_'
'Gene^_'
'gf'
'Signing^_'
'fn^_'
'FU'
'ata'
'acc^_'
'credentials^_'
'Unit4_'
'Bo'
'Rep^_'
'toolkit_'
'WO'
'comments^_'
'qualifier_'
'gender_'
'ra'
'opengis_'
'MU'
'News_'
'Hostname_'
'Iam^_'
'().^_'
'oo_'
'Pid_'
'finished_'
'tra'
'Ledger^_'
'following^_'
'li'
'draw'
'del_'
'Business_'
'ip'
'appengine_'
'Unique_'
'RM'
'Wave^_'
'Feedback_'
'syntax^_'
'Battle^_'
'Analyzer^_'
'Provides_'
'reason^_'
'CUSTOM\u^_'
'oo'
'"∅\\^_'
'bn'
'Rs'
'Observation^_'
'Pi'
'AS'
'Sorter_'
'fr'
'Scaled^_'
'001'
'extra_'
'Jms^_'
'eta'
'96^_'
'box'
'Demo_'
'dl^_'
'dl_'
'Int1'
'.2'
'FULL\u^_'
'hits_'
'amazonaws^_'
'Requests^_'
'none_'
'simulator_'
'STR_'
'Func1_'
'literal^_'
'Outgoing^_'
'Encoded_'
'sep_'
'ratio_'
'mapper^_'
'lower_'
'ted_'
'idi'
'FILTER_'
'ile_'
'netbeans_'
'tp^_'
'supplier_'
'76^_'
'Given^_'
'Caption_'
'Wx^_'
'gh'
'Format'
'Recording^_'
'0.4'
'facet^_'
'quality^_'
'deptno^_'
'hours_'
'containers_'
'INITIAL\u^_'
'word'
'94_'
'Exclude^_'
'ENGLISH_'
'returns^_'
'Editing^_'
'Name\u^_'
'Tools^_'
'implementation^_'
'ami'
'"./^_'
'DN_'
'Compressed^_'
'auto_'
'Viewport_'
'pick^_'
'arrow^_'
')."_'
'len^_'
'panel\u^_'
'Rex^_'
'flow'
'Charge^_'
'po^_'
'Proposal_'
'Probability_'
'Ud'
'Bootstrap_'
'rotate_'
'blocks^_'
'ih'
'Loggable_'
'printer_'
'kk'
'attack^_'
'picture^_'
'bin'
'Hour^_'
'sin'
'PREFIX\u^_'
'argv_'
'005^_'
'HAS\u^_'
'beta_'
'any'
'DIR\u^_'
'Dot_'
'ctrl^_'
'ENTRY\u^_'
'CA'
'Ko'
'Row'
'Cat_'
'sym_'
'Placeholder^_'
'Sol'
'split'
'ag'
'Sky^_'
'Mac_'
'uhn_'
'mad'
'Getter^_'
'ado_'
'order'
'coordinates_'
'place'
'KEYCODE\u^_'
'lazy^_'
'stream'
'per'
'fix'
'scanpos_'
'REF_'
'2000^_'
'EXCEPTION_'
'ware_'
'jg'
'XA^_'
'LE'
'Denied^_'
'103'
'pop'
'Man'
'Timeline^_'
'distinct^_'
'.8'
'pre_'
'python_'
'Gen'
'tileentity_'
'404_'
'accumulo_'
'ad'
'CONTEXT_'
'Aliases_'
'nc'
'dialogs_'
'Catch^_'
'Closure_'
'SG'
'VOLATILE_'
'color'
'gemfire_'
'Top'
'Implemented^_'
'ay^_'
'Personal^_'
'hr_'
'aa_'
'Rational_'
'OV'
'vendor^_'
'OPT\u^_'
'BS'
'CO'
'bet'
'Uris_'
'IM^_'
'Digital^_'
'GS'
'zero_'
'Datum_'
'Production^_'
'object'
'ME'
'ub_'
'hw'
'              ^_'
'include_'
'Yes^_'
'fx^_'
'bound_'
'edu^_'
'VA'
'k'
'React^_'
'MAR'
'Le'
'wu'
'rti'
'criteria^_'
'designer_'
'Creation_'
'bus'
'WINDOW\u^_'
'nas'
'media'
'g1_'
'truffle_'
'FOLDER_'
'cg'
'Comparator^_'
'Date'
'58^_'
'HOST\u^_'
'wizard_'
'Cu'
'len'
'qt'
'erm'
'rank^_'
'300^_'
'ier^_'
'ky'
'Mqtt^_'
'mem_'
'Measurement_'
'Ms^_'
'Tab'
'AI'
'512_'
'La'
'DEFAULT^_'
'Launcher^_'
'DROP^_'
'k\u^_'
'Cla'
'zs'
'cleanup_'
'Roots_'
'acc_'
'producer^_'
'aliases_'
'div_'
'bo^_'
'sem^_'
'Story^_'
'Va'
'Discount^_'
'Now^_'
'Num'
'lr'
'mw'
'ny_'
'Decoder^_'
'Calculation^_'
'f5_'
'Mi^_'
'physical^_'
'parms_'
'hl7_'
'upper_'
'operand_'
'gr'
'Du'
'week^_'
'aj'
'Your^_'
'Ju'
'FS_'
'main'
'Cam'
'xmlbeans_'
'ren'
'cat'
'DECIMAL^_'
'family_'
'ou^_'
'Mediator_'
'Flush^_'
'init'
'bank_'
'\"'
'mx_'
'sut_'
'XI'
'financial_'
'cas'
'Za'
'Calc^_'
'connections_'
'Over'
'nm'
'xxx^_'
'pm^_'
'Buck^_'
'Resize^_'
'mysql_'
'Slave^_'
'CT^_'
'Measures^_'
'shape'
'Piece^_'
'Ri'
'ene'
'git_'
'unique_'
'result'
'Unused^_'
'ses_'
'TOP\u^_'
'VERTICAL_'
'IR^_'
'Vector3^_'
'External_'
'uml_'
'Leave^_'
'Materialized^_'
'Stack'
'Fo'
'PAR'
'120'
'hs_'
'stra'
'Explicit^_'
'cross^_'
'ln_'
'Money^_'
'Processors_'
'~^_'
'Request\u^_'
'bin_'
'rl'
'SW'
'k2_'
'xsp_'
'servers_'
'secret_'
'cor'
'oa'
'Bat'
'features^_'
'sor'
'sync'
'Footer_'
'junit4_'
'Wildcard^_'
'Statistic_'
'Aligned^_'
'UTF_'
'Midi^_'
'stroke^_'
'dre'
'WS'
'oli'
'0xd'
'damage_'
'Shadow_'
'water^_'
'..^_'
'null'
'den'
'Ki'
'databinding_'
'Esc'
'Products_'
'PM'
'ized^_'
'Ac'
'GM'
'TEST_'
'Submission^_'
'ede'
'1000'
'Air^_'
'rr_'
'IP\u^_'
'artemis_'
'Minute_'
'union^_'
'lo'
'kon'
'IC\u^_'
'Od'
'Encoder^_'
'weather_'
'tar'
'CF'
'PAYLOAD_'
'tile'
'vo^_'
'Yarn^_'
'cons_'
'102'
'addresses_'
'Indexer_'
'~'
'want^_'
'Documents^_'
'dim'
'jill_'
'ET'
'DA^_'
'CH'
'Ti'
'action'
'MMMMMMMMMMMMMMM^_'
'za^_'
'Styles_'
'ten'
'Oracle^_'
'xb'
'Arithmetic^_'
'Transactions_'
'STORAGE\u^_'
'how^_'
'Em'
'attempt^_'
'Sch'
'neo4j_'
'Scopes_'
'sig_'
'mit'
'prestosql_'
'added_'
'"|^_'
'TL'
'CG'
'bd^_'
'pic^_'
'Ident_'
'Edition^_'
'104'
'bon'
'Yang^_'
'soft'
'gar'
'payment_'
'Department^_'
'IR'
'resource'
'rr'
'"&"_'
'Collect^_'
'([^_'
'MP_'
'META\u^_'
'Containing^_'
'PLUGIN\u^_'
'size'
'192^_'
'Al'
'Ber'
'nf_'
'enqueue_'
'roles^_'
'effective^_'
'Most^_'
'jdk_'
'station^_'
'{'
'with\u^_'
'151'
'pin^_'
'Pin_'
'A1_'
'iw'
'.5'
'mono'
'Instrumentation^_'
'Least^_'
'high'
'son'
'kt'
'Act^_'
'participant^_'
'algorithm^_'
'pull^_'
'FILL\u^_'
'ack_'
'era'
'count'
'Po'
'UNI'
'Extent_'
'jn'
'par4_'
'RET'
'preference^_'
'Leg'
'Boundary^_'
'r'
'od_'
'Modal^_'
'detect^_'
'Circuit^_'
'effect^_'
'82^_'
'Ex'
'droid_'
'highlight^_'
'Dns^_'
'regex^_'
'SE^_'
'ten^_'
'Bio'
'152'
'0xC'
'Checkbox_'
'Splitter_'
'bt_'
'p2'
'mf_'
'FN'
'Projects^_'
'Mob^_'
'COMPONENT\u^_'
'EQ_'
'seek_'
'TE_'
'rma'
'Exact^_'
'Mesh_'
'TP'
'Ontology_'
'Avg^_'
'bib'
'Ce'
're'
'vector'
'dar'
'Impl'
'OL'
'005fmessage\u^_'
'money_'
'aaa^_'
'minute_'
'UV_'
'hardware_'
'VE'
'Playlist^_'
'velocity^_'
'And_'
'∅∅∅"_'
'Lambda_'
'lar'
'Boundary_'
'U\u^_'
'rnd_'
'hor'
'Listenable^_'
'ix^_'
'KM'
'ai^_'
'Pane'
'Bits^_'
'seed^_'
'ide'
'Operating^_'
'DERIVED_'
'ast'
'89^_'
'Via^_'
'agentsoz_'
'over_'
'mat'
'rx'
'CHANNEL_'
'hal'
'Buckets_'
'Stock_'
'ep'
'F8_'
'MA^_'
'mid^_'
'aspect^_'
'.\\\\^_'
'Assist^_'
'una'
'Gwt^_'
'Check'
'semanticweb_'
'var7_'
'105'
'006^_'
'many^_'
'Interaction_'
'MENT\u^_'
'song^_'
'h2_'
'Skin^_'
'"',^_'
'Flight^_'
'Violation_'
'ES'
'UC'
'uf_'
'git'
'TEXT'
'twi'
'encoded_'
'nts_'
'nsi'
'Be'
'filter'
'af_'
'expire^_'
')'
'ial_'
'+)'
'buf^_'
'REQUIRED_'
'gu'
'S1'
'BORDER_'
'started_'
'IC'
'Authenticated^_'
'circle^_'
'Operators_'
'dst'
'Heap_'
'"\\"'
'ability_'
'tri'
'root'
'MODEL_'
'wb_'
'col'
'BLE\u^_'
'eh'
'orig_'
'TD'
'Kernel^_'
'wy'
'eti'
'statistics^_'
'Uuid^_'
'Logout^_'
'Decoration_'
'A3'
'capabilities_'
'discovery_'
'Sentence^_'
'spe'
'101'
'news_'
'batfish_'
'Times^_'
'Trans_'
'clip^_'
'bus^_'
'specific^_'
'terminal_'
'\\'^_'
'Break_'
'BIT'
'Adding^_'
'Requested_'
'Iso'
'DURATION_'
'Netty^_'
'fabric8_'
'TT'
'Comp'
'bl_'
'tiles_'
'OFFSET\u^_'
'L10_'
'rh'
'firebase_'
'fy_'
'containing^_'
'Fecha^_'
'Base64^_'
'{}\\^_'
'tat'
'TE^_'
'3.0_'
'ier_'
'Trait^_'
'bridge^_'
'anti'
'2017^_'
'[]^_'
'010^_'
'ris'
'Histogram^_'
'178'
'href_'
'nor'
'ALL^_'
'zo'
'percent_'
'meter^_'
'Blo'
'NT^_'
'Compiled^_'
'converted^_'
'pairs_'
'stack'
'Press^_'
'92^_'
'v2'
'DC^_'
'sci'
'kp'
'credit^_'
'uc'
'Slider^_'
'dep'
'hg'
'0x80_'
'usuario^_'
'bu'
'Throwable^_'
'comm_'
'Value'
'CAR'
'"]'
'Mutation^_'
'Reservation^_'
'rollback^_'
'finder_'
'0xA'
'persist^_'
'ADMIN\u^_'
'NF'
'pos'
'tid_'
'calc_'
'Mean_'
'klass_'
'Difference_'
'Cons_'
'Supplier^_'
'Turn_'
'rect^_'
'unt'
'Armor^_'
'Gs'
'swap_'
'common\u^_'
'raft_'
'Attachments_'
'frames_'
'dis'
'Meta'
'Blank^_'
'ez'
'It'
'Traversal_'
'ION^_'
'ala'
'jersey_'
'Php^_'
'sec_'
'Design_'
'Bug'
'0xF'
'watch^_'
'ww'
'kl'
'Ordering_'
'sand'
'Sla'
'0x02_'
'par^_'
'Once_'
'146'
'9L_'
'Skin_'
'YE'
'secure^_'
'CHANGED_'
'ul_'
'SERVER_'
'Fit^_'
'FALSE^_'
'openide_'
'Vis^_'
'sv_'
''\\\\'_'
'deserialize^_'
'Desc'
'Artist_'
'Par^_'
'hit_'
'cpu_'
'CONTROL\u^_'
'DP'
'manifest_'
'works_'
'Group'
'Observer^_'
'Cor'
'Applet_'
'term'
'outputs_'
'/>\\^_'
'agg^_'
'pc^_'
'fan'
'iti'
'WM'
'UTC_'
'online^_'
'Hdfs^_'
'tick_'
'lli'
'docker^_'
'SE_'
'BP'
'`"_'
'bal'
'ND'
'DESC^_'
'∅r'
'track'
'ner'
'green'
'1997^_'
'ni_'
'Reserved^_'
'Refactoring^_'
'openc'
'oy'
'Crud^_'
'Scheduling^_'
'Words^_'
'SEND\u^_'
'hu'
'don^_'
'severe_'
'Todo^_'
'.4'
'xp'
't1'
'ob_'
'skin_'
'signal_'
'ER'
'py^_'
'openhab_'
'OPEN_'
'88^_'
'Half^_'
'Bit'
'Iteration^_'
'Param'
'ical^_'
'OI'
'hl'
'SKIP\u^_'
'Char'
'Connections^_'
'RUNNING_'
'sen'
'ready^_'
'note'
'Bu'
'al\u^_'
'sk_'
'NEW_'
'135'
'Fully^_'
'CLUSTER\u^_'
'203'
'AE'
'patch_'
'2p'
'angle^_'
'RECORD\u^_'
'ding^_'
'Vote^_'
'edi'
'upgrade^_'
'rod'
'beta^_'
'Lin'
'MR'
'ICON_'
'case'
'alluxio_'
'School^_'
'fla'
'Axiom_'
'aci'
'END'
'ner_'
'ldap_'
'pp'
'Ordered_'
'lista_'
'ro'
'Ep'
'Owned^_'
'depth^_'
'FINE_'
'xs_'
'clo'
'"@"_'
'ase^_'
'NR'
'CL^_'
'Idle_'
'fact_'
'cond_'
'ssh^_'
'lc^_'
'instances^_'
'Cross'
'assigned^_'
'adams_'
'team'
'House^_'
'T3_'
'Pe'
'Notifications_'
'Handling^_'
'A5'
'ort_'
'ime_'
'Os'
'cur'
'replacement_'
'Wi'
'checked_'
'∅∅_'
'decision^_'
'E2_'
'iso^_'
'formula_'
'DATA'
'rating_'
'Ascii^_'
'xjc^_'
'dj'
'target'
'VT'
'0d_'
'Sibling_'
'"????"_'
'CHANGE\u^_'
'stub^_'
'Within^_'
'pro_'
'My'
'config'
'table\u^_'
'router^_'
'output'
'dh'
'ek'
'CON'
'temporary^_'
'Tech^_'
'Temperature_'
'fc^_'
'ANY_'
'rn'
'Car'
'Mnemonic_'
'TYPE\u\u^_'
'ado'
'Leader^_'
'">^_'
'spring'
'oid^_'
'PRIMARY^_'
'CORBA_'
'lan'
'Mar'
'Convention_'
'bug^_'
'ise^_'
'af'
'nu_'
'CHANGEABLE_'
'Privileged^_'
'196'
'FONT\u^_'
'R2_'
'AES^_'
'command'
'UNSETTABLE_'
'2013^_'
'INTERFACE_'
'FC'
'thread'
'mirror_'
'05_'
'sch'
'LL'
'permissions^_'
'wi'
'Policies_'
'HOUR\u^_'
'commands^_'
'Handles_'
'st\u^_'
'gal'
'TEST'
'Cube_'
'MO'
'lit'
'fer'
'Benchmark_'
'i1'
's3^_'
'sig'
'Function'
'sed^_'
'drawer^_'
'ero'
'ven'
'Indices^_'
'adi'
'ADMIN_'
'STYLE_'
'CE\u^_'
'TC'
'flip_'
'recipe^_'
'Instructions_'
'thumb^_'
'deleted_'
'conversion^_'
'Int1_'
'compilation^_'
'Button1_'
'Average_'
'put'
'lc_'
'PRO'
'mocked^_'
'Tenant_'
'patient_'
'tic_'
'Che'
'Feel_'
'tea'
'Ret'
''='_'
'Pu'
'exist_'
'chu'
'ka^_'
'ticket_'
'LE^_'
'ax'
'CD^_'
'lists_'
'nk_'
'routing_'
'wl'
'Label1'
'3000_'
'ha'
'cube^_'
'ile^_'
'Shipping^_'
'T1'
'ord_'
'Previous_'
'eth'
'compress_'
'Containers_'
'ordered^_'
'Bea'
'Avatar^_'
'Mer'
'connect'
'relationship^_'
'pl^_'
'component'
'du'
'vc_'
'keywords_'
'91^_'
'149'
'Round_'
'Pri'
'numero^_'
'cla'
'CAN'
'File'
'nl^_'
'VALID\u^_'
'Eclipse^_'
'dit'
'Pk^_'
'Effects_'
'"+"_'
'Encode^_'
'rand^_'
'accessor_'
'tive^_'
'square^_'
'gp_'
'2016^_'
'simple\u^_'
'dn_'
'OC'
'v201'
')?'
'v'
'Paging^_'
'bar\u^_'
'balance_'
'95^_'
'Om'
'advanced^_'
'Browse^_'
'roots_'
'Temporal_'
'Wo'
'INE'
'Es^_'
'MAT'
'Js'
'sus'
'edit'
'Ae'
'tal'
'.*'
'signed^_'
'button'
'Own^_'
'Lucene^_'
'Decision_'
'rw'
'BO'
'Bookmark^_'
'OP'
'EF'
'Graphic^_'
'Sending^_'
'FI'
'vl'
'her_'
'existing_'
'RO'
'REG'
'Checker^_'
'extract_'
'TEMPLATE\u^_'
'Ol'
'methods^_'
'ain_'
'activate^_'
'ena'
'VS'
'xin'
'ql'
'info\u^_'
'cam'
'LEFT^_'
'xo'
'regions_'
'gi'
'Toast^_'
'&'
'RATE_'
'o'
'toast_'
'cloudbreak_'
'erver_'
'a2'
'Mass^_'
'0xD'
'Underlying^_'
'pred_'
'RT^_'
'x2'
'pf_'
'202'
'CALL\u^_'
'mx^_'
'inf'
'Conversation_'
'Workflow_'
'Label3_'
'UF'
'OP_'
'ere'
'Ji'
'Paths^_'
'devices_'
'Datatype_'
'packages_'
'Handling_'
'Spaces_'
'BLE_'
'Http_'
'rat'
'EOF^_'
'C1_'
'revision^_'
'Rem'
'See^_'
'UP'
'Xs'
'authority_'
'N1_'
'El_'
'TASK_'
'Parsed_'
'Offer_'
'wifi^_'
'Processed_'
'hyvar_'
'multi'
'low'
'EMAIL_'
'ATTR_'
'column'
'0x00000008_'
'check\u^_'
'MB'
'ide^_'
'show'
'pla'
'ENABLE\u^_'
'vin'
'ey_'
'Bukkit^_'
'movie_'
'TI'
'Kernel_'
'UNS'
'Java'
'mb'
'gro'
'zookeeper_'
'jobs^_'
'84^_'
'Not_'
'Vpn^_'
'she'
'AF'
'skill^_'
'400'
'telegram_'
'fold_'
'calling^_'
'cle'
'Chrome^_'
'POINT\u^_'
'Asia^_'
'py_'
'percent^_'
'AT_'
'Func'
'lw'
'all\u^_'
'mer'
'SINGLE_'
'sma'
'ale'
'Train^_'
'objectweb_'
'bat'
'az'
'free_'
'aco'
'Raster_'
'Find_'
'ana'
'bol'
'Nio^_'
'abc\u^_'
'yb'
'des_'
'loader^_'
'Fn^_'
'echo^_'
'expand_'
'normalized^_'
'lap'
'cu_'
'tt^_'
'terms^_'
'300'
'println^_'
'ii'
'Couldn^_'
'EN_'
'etr'
'deployment_'
'Maximum_'
'salt_'
'Doc'
'nr_'
'ind^_'
'jam'
'011'
'coord^_'
'Importer_'
'COMMAND_'
'expr'
'MAX'
'BE^_'
'Shutdown_'
'09_'
'98^_'
'Int2_'
'ste'
'Generic_'
'weightx_'
'RI'
'Grpc^_'
'Printer^_'
'blank^_'
'Classpath_'
'inc_'
'evaluator_'
'ech'
'Invalid_'
'Tp'
'hand_'
'LIMIT^_'
'pixel_'
'Tmp^_'
'Dist^_'
'rie'
'y0_'
'hql_'
'enc'
'dialect_'
'SIG'
'Ui_'
'119'
'za_'
'Arc_'
'just_'
'Merged^_'
'divide_'
'Granted^_'
'Zip_'
'Trip^_'
'Always^_'
'u'
'pid^_'
'001_'
'goal^_'
'XX^_'
'ENCODING_'
'Activities_'
'179'
'craft'
'Gl'
'Battery^_'
'reduce^_'
'Dep^_'
'Uns'
'Stella_'
'avatar^_'
'VB'
'asi'
'SAM^_'
'd2'
'ACC\u^_'
'mac_'
'eq^_'
'ber^_'
'Maintenance^_'
'jb^_'
'COR'
'number'
'Throws^_'
'bill^_'
'Low_'
'111_'
'SECURITY\u^_'
'Ack^_'
'C2_'
'8859^_'
'SN'
'gy'
'COS^_'
'junit^_'
'SHA'
'LR'
'sig^_'
'Verify_'
'ind'
'SORT\u^_'
'Invoice_'
'bac'
'ew'
'INPUT_'
'Agg^_'
'something^_'
'person'
'dep_'
'dg'
'9f_'
'VM\u^_'
'att_'
'\\"><^_'
'nz'
'128^_'
'curve^_'
'input'
'infos_'
'':'^_'
'webs'
'Outline^_'
'MOD\u^_'
'vis'
'craft^_'
'cra'
'primary_'
'connected_'
'105_'
'PROVIDER_'
'NS'
'fl'
'RANGE_'
'contract^_'
'QUE'
'tables^_'
'upload_'
'ine'
'blog^_'
'ser'
'han'
'Attached^_'
'hf'
'vor'
'direction^_'
'Retry_'
'159'
'Viable^_'
'MR^_'
'Hy^_'
'PU'
'wrapped_'
'bf_'
'Pitch_'
'cfg^_'
'DIALOG\u^_'
'PS^_'
'su'
'Port'
'ALL'
'si'
'cru'
'Referenced^_'
'credential_'
'PASSWORD\u^_'
'odi'
'Mass_'
'ti'
'Hel'
'ball^_'
'km'
'music_'
'don'
'Dt'
'RR'
'ix'
'\u\u\uNLCHAR\u\u\u^'
'xpack_'
'foo'
'FINDER\u^_'
'145'
'7.'
'Apply_'
'PLAYER\u^_'
'Pojo^_'
'JE'
'pref\u^_'
'bean'
'wer'
'cluster'
'INS'
'Semaphore_'
'frequency_'
'yg'
'ho^_'
'INTERVAL\u^_'
'Kettle^_'
'Retrieve^_'
'ask^_'
'var8_'
'States^_'
'bounding^_'
'c1'
'mes_'
'cut^_'
'Remaining^_'
'PROFILE\u^_'
'1d_'
'qn'
'pen'
'Rt'
'METADATA\u^_'
'Tail_'
'reactivex_'
'wd_'
'112'
'ize^_'
'Seed^_'
'fire'
'rio_'
'Checking^_'
'Descr_'
'Apple^_'
'Calling^_'
'single_'
'\\":[{\\"^_'
'system'
'rl_'
'BE'
'mb^_'
'trans'
'Misc_'
'words^_'
'grad'
'lin^_'
'shop^_'
'License_'
'Value\u^_'
'nn'
'CHAR\u^_'
'my_'
'Confirmation^_'
'107'
'Vector2f_'
'shaded_'
'Flex^_'
'Pod^_'
'hm_'
'pro'
'rep^_'
'da'
'Ele'
'Props^_'
'Routes_'
'cascade_'
'representation_'
'85^_'
'LOGIN\u^_'
'bor'
'sla'
'P1_'
'Moved_'
'dex_'
'GAME\u^_'
'testa'
'sas'
'mi'
'Artifacts_'
'san'
'Pan'
'slice^_'
'atts_'
'qa'
'Traversal^_'
'ET_'
'choice^_'
'DTO^_'
'nj'
'mo'
'nal'
'Caller_'
'St^_'
'Drop_'
'fname_'
'Chi'
'SUB'
'un_'
'Inside^_'
'bm_'
'Ar^_'
'Inference_'
'0xE'
'idle^_'
'Epoch^_'
'004'
'datas_'
'win_'
'std'
'Pipe^_'
'food^_'
'sj'
'Inspection_'
'Org_'
'Radians_'
'Arrow_'
'De'
'ization^_'
'tk'
'RU'
'home'
'\\".\\"^_'
'WAR'
']/^_'
'tw'
'Presenter^_'
'g'
'NET'
'tool'
'Namespaces_'
'XY_'
'returns_'
'front^_'
'FF_'
'baseline^_'
'nis'
'Sal'
'uberfire_'
'Ur'
'diagnostics_'
'Hardware^_'
'Exact_'
'500'
'Point'
'Blocking_'
'ld_'
'enter_'
'Gauge_'
'wen'
'113'
'BD'
'kf'
'MB_'
'fault^_'
'MI'
'resize^_'
'Raster^_'
'lin_'
'expiration^_'
'ask_'
'SEC'
'Weapon^_'
'CACHE_'
'DS_'
'tl'
'Mol'
'named_'
'urs'
'\\'
'ob'
'Playing_'
'request'
'Dw'
'token'
'Tor'
'sec'
'Echo^_'
'hb'
'edge'
'docs^_'
'Canceled_'
'Sections_'
'Hyper'
'es\u^_'
'vid'
'logout_'
'lhs^_'
'codes_'
'yaml_'
'tions^_'
'Button'
'apple_'
'full'
'oauth2_'
'Kubernetes^_'
'Do_'
'tz_'
'∅t'
'class\u^_'
']]'
'Label'
'cia'
'OS\u^_'
'dept^_'
'ace_'
'mus'
'theta_'
'getting^_'
'dashboard_'
'QUEUE\u^_'
'neo'
'SYS'
'109'
'Fact_'
'ay'
'Evaluation_'
'141'
'resp^_'
'NN'
'177'
'Gene_'
'Unfinished^_'
'Panel2_'
'goods^_'
'hand'
'ary_'
'ar'
'sy_'
'building^_'
'mn'
'indent^_'
'1000L_'
'Utility^_'
'Sources^_'
'Energy_'
'parsed_'
'Su'
'RIC'
'Separator^_'
'train_'
'Una'
'ura'
'Persistent_'
'department^_'
'NON'
'discovery^_'
'syntax_'
'minecraft^_'
'V3^_'
'sti'
'jin'
'ni^_'
'instrument_'
'af^_'
'Query'
'ag_'
'Ship_'
'El^_'
'ying^_'
'cookies_'
'147'
'STA'
'mic'
'350'
'ot'
'esta'
'9.'
'sms_'
'qs_'
'122'
'websocket_'
'slave^_'
'Javadoc^_'
'out\u^_'
'desktop_'
'smtp^_'
'kind^_'
'kv_'
'Street^_'
'script'
'OK\u^_'
'links^_'
'dat^_'
'Fluent^_'
'Generation_'
'declaration_'
'pts_'
'204'
'dn'
'Pt'
'finder^_'
'node1_'
'qa_'
'Jid_'
'min\u^_'
'Image'
'webapp_'
'ise_'
'menu'
'iza'
'=''
'Topics_'
'res'
'Stamp^_'
'UM'
'valor^_'
'prec'
'Weapon_'
'8080^_'
'2012^_'
'EM'
'Jump^_'
'd3_'
'trying^_'
'send'
'Ground^_'
'DI'
'custkey^_'
'"\u\u^_'
'DARK\u^_'
'rte'
'h'
'dark'
'SB'
'EXT_'
'que'
'Ru'
'hdfs^_'
'Green^_'
'8.'
'Objective^_'
'.7'
'own^_'
'YA'
'700'
'tensorflow_'
'Upgrade_'
'Defined_'
'Transactional^_'
'Declaring^_'
'Ft'
'Folders_'
'Gallery^_'
'para'
'initialized^_'
'432'
'mifos_'
'acl^_'
'algorithms_'
'Leg^_'
'jclouds_'
'AL'
'pdf_'
'rhs^_'
'ender'
'fri'
'wb'
'Restart^_'
'Staff^_'
'Custom_'
'Armor_'
'Experiment_'
'NT\u^_'
'Fore'
'Claim_'
'Name\u_'
'GEO'
'DO^_'
'\\"/>\\^_'
'addr^_'
'uz'
'en'
'variant^_'
'ranges_'
'Risk^_'
'Contained^_'
'getter_'
'Cy'
'sea'
'jer'
'Expandable^_'
'CREATED_'
'sz'
'Si'
'decl_'
'hadoop^_'
'selector^_'
'anchor^_'
'VC'
'cli'
'W\u^_'
':\\\\^_'
'Pa'
'SE\u^_'
'Peak^_'
'hr^_'
'160_'
'some'
'FORM\u^_'
't2'
'Shard_'
'you'
'Dy'
'81^_'
'"∅∅∅∅∅∅∅"_'
'Pooled^_'
'stmt^_'
'Rollback^_'
'PP^_'
'pager_'
'Big'
'pit'
'Lea'
'139'
'1.2'
'ele_'
'Thumbnail^_'
'Debugger^_'
'Exp'
'ster'
'Af'
'po'
'scenario^_'
'264^_'
'reuse_'
'Pages^_'
'List\u^_'
'pay_'
'mem'
't3_'
'nie'
'OUTPUT_'
'Constants^_'
'mc^_'
'ram^_'
'sk'
'97^_'
'mpo'
'POSITIVE\u^_'
'ian_'
'oz'
'Conta'
'Or'
'ESL^_'
'69^_'
'sho'
'current'
'AUTO'
'CAS'
'userid_'
'Super_'
'Builtin^_'
'Flash^_'
'density_'
'now'
'Buff_'
'gan'
'gos'
'marshaller_'
'para^_'
'jms^_'
'Flu'
'Hard^_'
'version'
'sd^_'
'SCHEMA_'
'DV'
'MODULE\u^_'
'ker'
'HD'
'Hy'
'Gender^_'
'NP'
'v3'
'dest'
'BC^_'
'MISSING\u^_'
'TL\u^_'
'uo'
'Mojo_'
'Biz^_'
'Observation_'
'MOB_'
'z'
'volley_'
'acquire^_'
'Classifier^_'
'role'
'Fs_'
'javascript^_'
'ceil_'
'jaxb_'
'128'
'131'
'drawable^_'
'again^_'
'Gd'
'ij'
'pk'
'wav^_'
'tst'
'\\"}"_'
'∅n'
'High_'
'parallel^_'
'device'
'Anim_'
'print'
'D1_'
'MT^_'
'icons_'
'Case'
'csv_'
'PO'
'120^_'
'ade'
'VD'
'A4'
'POS_'
'encryption^_'
'meter_'
'68^_'
''\u'_'
'zt'
'Record'
'icon'
'ssa'
'205'
'dagger_'
'nos'
'Mu'
'Fx^_'
'YELLOW_'
'primitive_'
'pac'
'JC'
'Processed^_'
'hyper'
'Due^_'
'syn'
'Extend^_'
'Rev^_'
'Clusters_'
'translator_'
'Direct_'
' "_'
'end\u^_'
'ava'
'scenes_'
'document'
'within^_'
'kar'
'sg_'
'qui'
'pu'
'mv'
'P2_'
'xx^_'
'hk'
'schema'
'HT'
'excluded^_'
'UP\u^_'
'Mot'
'txn_'
'BM'
'searcher_'
'Mean^_'
'rb^_'
'Meter_'
'FILENAME_'
'stri'
'ESS'
'Unavailable^_'
'sex_'
'blob_'
'land^_'
'tiny'
'EMAIL\u^_'
'Speech^_'
'ENT\u^_'
'jasperreports_'
'Online_'
'zed^_'
'wildfly_'
'L1'
'yp'
'py'
'kie^_'
'WAIT\u^_'
'Kit^_'
'MAIN\u^_'
'GWT_'
'vi'
'MON'
'evaluation^_'
'Products^_'
'zd'
'sli'
'alg_'
'tic'
'codegen_'
'78^_'
'w'
'review^_'
'predicate^_'
'UTC^_'
'DEF\u^_'
'SWT^_'
'fort'
'Middle^_'
'recipient^_'
'Reports^_'
'aria'
'Degrees_'
'Individual^_'
'Iterations_'
'take_'
'dri'
'imp'
'999_'
'WORK'
'scheduler^_'
'BB^_'
'OPTIONS_'
'Usb^_'
'ME^_'
'ece'
'bootstrap^_'
'ment'
'star^_'
'By'
'middle_'
'SC^_'
'ich'
'Ia'
'eit'
'hint_'
'Typed_'
'sum'
'Px_'
'navercorp_'
'Tap^_'
'$$'
'Ls_'
'Versioned^_'
'faces^_'
'Pay'
'short'
'tran'
'pref'
'Tar'
'Timber_'
'Wall^_'
'cid_'
'Bi'
'CL'
'NAMESPACE\u^_'
'lg'
'2.0f_'
'010'
'sign'
'EE^_'
'parents_'
'emp'
'each_'
'AXIS_'
'ci'
'fun'
'))'
'We^_'
'linkedin_'
'pad'
'Music_'
'0xff'
'gridwidth_'
'has'
'Stmt^_'
'We'
'Offering^_'
'Divider^_'
'unit'
'converters_'
'121'
'Shortcut^_'
'kr'
'Portfolio^_'
'Rectangle^_'
'lb_'
'streamsets_'
'threshold^_'
'e'
'GT\u^_'
'ROLE^_'
'Opened_'
'Configurable_'
'billing^_'
'closing^_'
'Equipment^_'
'please^_'
'Evaluator^_'
'amazon_'
'if\u^_'
'ler'
'HA^_'
'quest_'
'ah'
'writing^_'
'annotations^_'
'RPC^_'
'ring'
'party^_'
'Vehicle_'
'lee'
'SMS^_'
'Combined^_'
'2d'
'usermodel_'
'313^_'
'arch_'
'nter'
'MILLIS_'
'%.^_'
'radius^_'
'repositories_'
'phoenix_'
'OTHER_'
'Tagged^_'
'Third^_'
'Prompt_'
'mal'
'Managers_'
'Jedis^_'
'Logs^_'
'gre'
'Instance'
'correlation^_'
'Editable^_'
'Protein^_'
'ru'
'pro^_'
'chk^_'
'Ct'
'layout\u^_'
'ku_'
'=['
'vehicle^_'
'sz_'
'ice^_'
'general_'
'activate_'
'nit'
'str2_'
'change'
'Ai'
'mkdir_'
'JI'
'']'_'
']+'
'able'
'YES_'
'pw'
'Version'
'cnt'
'Por^_'
'PN'
'New'
'omi'
'MV'
'e1'
'Prefixes_'
'Mes'
'cad'
'sing^_'
'NCE_'
'align_'
'ak_'
'sentence^_'
'contract_'
'pinpoint_'
'0xB'
'Rec'
'Size'
'CONTAINER\u^_'
'total'
'mh'
'\u\u\uCARET\u\u\u=_'
'wrapper^_'
'frontend_'
'datas'
'Tm'
'ng\u^_'
'BUFFER_'
'Modes_'
'Ha'
'billing_'
'registration_'
'Den'
'friend^_'
'currently^_'
'420'
'iot'
'study^_'
'CLA'
'RESPONSE_'
'tinkerpop_'
'RF'
'dex^_'
'PROP_'
'damage^_'
'adding^_'
'alignment_'
'estr'
'str1_'
'hc_'
'06_'
'documents_'
'HU'
'au'
'Plan'
'176'
'AE^_'
'jw'
'ND^_'
'ability^_'
'major^_'
'promise_'
'Orientation^_'
'Graphic_'
'were^_'
'jo'
'bility^_'
'Rc'
'CS_'
'Mm'
'jh'
'BIGINT^_'
'Extensions^_'
'ype^_'
'Qualifier^_'
'PB'
'logout^_'
'THRESHOLD_'
'Stopped_'
'C2^_'
'ray_'
'ema'
'Vis'
'Ide^_'
'Encode_'
'html\u^_'
'Bra'
'TEMPLATE_'
'world'
'ow_'
'blo'
'tabbed^_'
'NU'
'pair^_'
'check'
'ALI'
'Iteration_'
'uses^_'
'ler^_'
'gemoc_'
'Relational^_'
'font'
'Approval^_'
'rin'
'KO'
'ite^_'
'leader^_'
'siddhi^_'
'SE'
'Suffix^_'
'atu'
'mse_'
'Disposed_'
'Pro'
'Qty^_'
'94^_'
'uima_'
'framework^_'
'Temperature^_'
'Im'
'resume_'
'sky'
'tail^_'
'Behaviour_'
'heap^_'
'Cc'
'410'
'ple'
'},{\\"^_'
'08_'
'Charge_'
'yz'
'TR'
'Recipient_'
'           ^_'
'med_'
'swa'
'lv^_'
'common'
'Recursive^_'
'RETURN\u^_'
'Run'
'flu'
'ph_'
'Parents_'
'Food_'
'dir'
'eld'
'cop'
'concat^_'
'recent^_'
'sym'
'UE'
'artist^_'
'KEYS_'
'gli'
'chr_'
'pipe_'
'Aa'
'distribution^_'
'vb'
'logo^_'
'Gu'
'sm^_'
'characters_'
'bv'
'f4_'
'variant_'
'Box'
'rk_'
'ility^_'
'ese'
'repeat_'
'iv'
'ial'
'since^_'
'Acc'
'RESOURCE_'
'Page'
'Bond^_'
'204_'
'Intermediate^_'
'mir'
'Require^_'
'***************^_'
'changes^_'
'Line'
'invoking^_'
'concept_'
'Jmx^_'
'valor_'
'cross'
'Grouping^_'
'FB'
'follow^_'
'sessions_'
'Strength_'
'floor^_'
'ou'
'equip'
'Buy^_'
'create'
'Ns_'
'edit\u^_'
'PRIORITY_'
'vel_'
'foot'
'CHE'
'Widget\u^_'
'scores_'
'inv'
'headers^_'
'Persist^_'
'Types'
'Context'
'(){^_'
'successful^_'
'xj'
'alpha'
'esi'
'Configure^_'
'Kind^_'
'Front_'
'parent'
'ban'
'group\u^_'
'retry_'
'Dependent^_'
'Fm'
'Thrown^_'
'Candidates_'
'Cod^_'
'0.2'
'protos_'
'Long'
'Focusable_'
'ster_'
'base\u^_'
'members^_'
'LATE'
'Provisioning^_'
'Attempts_'
'tn_'
'0.03'
'Sig'
'Cleanup^_'
'func'
'assign_'
'Spi_'
'Inst^_'
'PACKAGE_'
'DO'
'tion\u^_'
'POST\u^_'
'reports_'
'Sam'
'hand^_'
'OF'
'song_'
'symbols_'
'}}"_'
'Light'
'ECT'
'Xi'
'visibility_'
'Written_'
'St'
'backend^_'
'Shown_'
'ini'
'"-'
'E1'
'SAMPLE\u^_'
'TRI'
'.."_'
'rect'
'ENT_'
'020'
'sun'
'DD^_'
'"#'
'tessellator_'
'b1'
'Versions^_'
'Increment^_'
'808'
'ky_'
'Bank_'
'Fan'
'FTP^_'
'Failures_'
'REST\u^_'
'Precision^_'
'Chan'
'TAGS_'
'spinner^_'
'Daemon_'
'black'
'mit_'
'pon'
'mos'
'Party_'
'tar^_'
'07_'
'Ad_'
'Locked^_'
'Daemon^_'
'129'
'Retries_'
'glu'
'DN'
'CHA'
'cube_'
'dist'
'Closure^_'
'Gradient_'
'Anim^_'
'bas'
'GEN'
'observable_'
'scaled^_'
'VL'
'500^_'
'gnu_'
'ae^_'
'Dump_'
'RP^_'
'et\u^_'
'Marked^_'
'otherlv\u^_'
'Coordinator_'
'Suggestion^_'
'droid'
'SUB\u^_'
'Lisp^_'
'nw'
'Message'
'\\"},{\\"^_'
'perm_'
'Non'
'Foot'
'cin'
'Prec'
'cen'
'AB^_'
'220^_'
'txn^_'
'TOTAL\u^_'
'ano'
'illegal^_'
'Futures_'
'Sensitive_'
'ni'
'und_'
'xr'
'geometry^_'
'bles_'
'Calculator^_'
'rev'
'Artist^_'
'Spread^_'
'oj'
'cycle^_'
'LINK_'
'specify^_'
'If'
'Review_'
'JB'
'0x7f0900'
'175'
'ash'
'DIRECTORY_'
'nac'
'Ste'
'.%^_'
'const'
'Open'
'Deps_'
'vec^_'
'fra'
'Aggregate_'
'gc^_'
'default'
'Mv'
'Polynomial_'
'modelo_'
'sn'
'Cast'
'tur'
'Expired_'
'balance^_'
'cod'
'detected^_'
'HOUR_'
'Table\u^_'
'83^_'
'[]'
'kv'
'Rounding^_'
'CC_'
'Sk'
'jenkins_'
'robolectric_'
'dummy_'
'Valor^_'
'Avatar_'
'Moving^_'
'SAML^_'
'Reports_'
'Sync'
'Alternatives_'
'inside^_'
'EDIT\u^_'
'leaf_'
'eda'
'Cit'
'ties_'
'POINT_'
'Way_'
'caption_'
'STOP_'
'm3'
'a3_'
'Us'
'protected^_'
'DR'
'Activated_'
'tests'
'0000'
'Notifications^_'
'tot'
'mj'
'Prob_'
'Triangle_'
'ati'
'OPEN'
'Sl'
'143'
'Panel2^_'
'par_'
'200'
'SK'
'animator_'
'associated^_'
'Radius^_'
'TITLE\u^_'
'1F_'
'formats_'
'Coverage_'
'168^_'
'streaming_'
'RG'
'CENTER\u^_'
'and\u^_'
'Ts_'
'OUT'
'Cap_'
'contents^_'
'xyz^_'
'ho'
'GN'
'Cost'
'pom^_'
'ADDRESS\u^_'
'nation^_'
'Hierarchical^_'
'callbacks_'
'Authorized^_'
'Tahoma^_'
'sq'
'302^_'
'93^_'
'gw_'
'vw'
'resume^_'
'106'
'coll_'
'foundation_'
'package'
'drone_'
'Buttons^_'
'Welcome^_'
'Bounded^_'
'Ten'
'John^_'
'CUR'
'initialized_'
'gri'
'H2^_'
'FOR'
'Labeled^_'
'TB'
'iva'
'100.0_'
'SAVE\u^_'
'Https^_'
'Auth'
'filesystem_'
'rating^_'
'jgit_'
'txt'
'UNIT_'
'peek^_'
'Detector^_'
'transfer_'
'GU'
'Degree^_'
'Optimized^_'
'\\\\.'
'people^_'
'Dc^_'
'quick'
'oos_'
'TEN'
'install_'
'aux^_'
'piece_'
'dx'
'125_'
'Vm_'
'Moves_'
'Assembler_'
'functionscenari^_'
'instead^_'
'real'
'tenant_'
'zar'
'lm_'
'FE'
'tac'
'xh'
'Imports_'
'VP'
'GRE'
'disc'
'fee^_'
'DO\u^_'
'Anti^_'
'BACK_'
'Ac^_'
'mr_'
'inst^_'
'130'
'replication^_'
'acc'
'D2_'
'POSITION\u^_'
'via'
'players^_'
'UNA'
'Tuple'
'transformation_'
'Name2_'
'clip_'
'stanford_'
'ontology^_'
'spo'
'Acl_'
'Setter^_'
'path\u^_'
'd0_'
'classic_'
'implements^_'
'cre'
'Commands^_'
'DELAY_'
'Original_'
'CRE'
'Telephony^_'
'138'
'fade^_'
'Sdk_'
'Discovery_'
'ALLOW\u^_'
'Qty_'
''#'_'
'SP_'
'Criterion^_'
'compound_'
'lon^_'
'line\u^_'
'Mesh^_'
'alter^_'
'functional^_'
'Chunks_'
'CURRENT_'
'jp^_'
'hosts_'
'push'
'D5_'
'wt'
'hin'
'FAILED\u^_'
'SLA'
'charge^_'
'CELL\u^_'
'ros'
'Resume^_'
'sk^_'
'BUNDLE\u^_'
'bh'
'Crop^_'
'Dead^_'
'qs'
'ANT'
'Stateful^_'
'Deep^_'
'Placement^_'
'Warehouse^_'
'Break'
'ACTIVE\u^_'
'lient_'
'Attack_'
'hol'
'ny^_'
'}}'
'name\u_'
'builders_'
'Valor_'
'Fire'
'opt'
'SRC\u^_'
'Negative_'
'REMOVE\u^_'
'ram_'
't0_'
'monitoring_'
'			^_'
'ports_'
'sn_'
'pg_'
'PROVIDER\u^_'
'FB^_'
'sample'
'Favorite^_'
'assets^_'
'ken'
'option'
'FD'
'Dispatch_'
'Inf'
'load'
'ang'
'Cur'
'ien'
'Community^_'
'spinner_'
'intent'
'heap_'
'd'
'cls^_'
'ROW_'
'Dest_'
'variables^_'
'ola'
'vh_'
'arg3_'
'Will^_'
'myt'
'house'
'aus'
'Successful^_'
'IN'
'LD'
'Poly^_'
'ron'
'Fee_'
'Installed^_'
'benchmark_'
'ION'
'canvas^_'
'even^_'
'versions_'
'Pass'
'zl'
'portal^_'
'descr_'
'uci_'
'dex'
'Imm'
'vu'
'Pub'
'Equality^_'
'yy_'
'dag_'
'Action'
'fat'
'm2'
'Timeline_'
'005f0_'
'vp_'
'CODE'
'minus^_'
'lei'
'unc'
'enc^_'
'rg_'
'Resizable_'
'{};^_'
'shell^_'
'mn_'
'MP^_'
'290'
'Av'
'bad'
'Addr^_'
'Serialization_'
'TIME'
'HM'
'nc^_'
'Reporting^_'
'use'
'Cover^_'
'184'
'led^_'
'ane'
'shiro_'
'cv^_'
'int\u^_'
'lie'
'GLOBAL\u^_'
'005ftag^_'
'005fjspx\u^_'
'l'
'jas'
'Button\u^_'
'ark'
'als_'
'EXPECTED\u^_'
'ftp^_'
'band^_'
'Income^_'
'115'
'008'
'cha'
'produces_'
'kn'
'jsoup_'
'iterations_'
'10\u^_'
'ei_'
'mind'
'extra'
'244'
'xstream_'
'Frame'
'roll^_'
'NP^_'
'Explorer^_'
'host'
'ath_'
'opennms_'
'144'
'Display'
'Bid^_'
'bits^_'
'Mixed^_'
'Matching_'
'Cas_'
'caucho_'
'embedded^_'
'no'
'[[^_'
'NG'
'GE'
'ado^_'
'Shards_'
'"$'
'VR'
'arg1'
'Until_'
'Theme\u^_'
'such^_'
'Pending_'
'nk'
'Vault^_'
'hon'
'apps^_'
'Tom'
'BER'
'KE'
'clause_'
'j2_'
'Ab'
'chrom'
'0x7f0b00'
'Eb'
'Parcelable^_'
'indexed^_'
'402'
'Rest_'
'ono'
'hai'
'zr'
'mon_'
'CR^_'
'behavior_'
'levels_'
'ans'
'ras'
'kor'
'gx'
'Bin_'
'Name1_'
'Requirements_'
'ame'
'wst_'
'114'
'rse'
'Task'
'185'
'Extractor^_'
'Filesystem_'
'total\u^_'
'Called^_'
'ld^_'
'mai'
'Min'
'032^_'
'193'
'lock'
'Jedis_'
'pst'
'PE'
'sprite^_'
'Extraction^_'
'EXTENSION_'
'threads^_'
'ped_'
'Pr'
'Cxx^_'
'DE_'
'ari'
'vat'
'750'
'un'
'0x7f0700'
'pun'
'VER'
'he_'
'VISUAL\u^_'
'ha_'
'XS'
'proto'
'Id1_'
'Replacement_'
'fit^_'
'sle'
'Send'
'COMMA_'
'HY'
'Unsafe^_'
'MN'
'jcr_'
'ctxt_'
'BODY_'
'center'
'mgt_'
'quota^_'
'phone'
'wn'
'MA'
'0.05'
'Ag'
'zk'
'Scoped^_'
'context'
'Type1_'
'pack'
'authenticate_'
'org'
'hero_'
'just^_'
'ning_'
'sem'
'orient_'
'TAB\u^_'
'OVER'
'Interest_'
'RGB^_'
'instantiate^_'
'SPACE\u^_'
'arc^_'
'android\u^_'
'MENT_'
'references_'
'classifier_'
'capt'
'\\")^_'
'rain'
'fen'
'jar'
'Cloud'
'Subnet^_'
'recipient_'
'fg'
'Coupon^_'
'twitter^_'
'html'
'ASC^_'
'Population_'
'Tabs^_'
'186'
'aggregation^_'
'smarthome_'
'R1'
'Phrase^_'
'Registered_'
'Sti'
'FAIL_'
'systems_'
'cac'
'loaded_'
'eam_'
'amp^_'
'IX'
'INVALID_'
'IH'
'Chrono^_'
'actual'
'COLUMNS_'
'112_'
'ard'
'Bson^_'
'IS_'
'Sig^_'
'var9_'
'ise'
'Relations_'
'Bus'
'literal'
'CB^_'
'ov'
'Dm'
'240_'
'jvm^_'
'Indexing^_'
'Man_'
'Apps^_'
'Stor'
'TRANSACTION\u^_'
'NUM_'
'INF'
'Data\u^_'
'ov_'
'che^_'
'Sleep^_'
'Fra'
'301^_'
'fon'
'characters^_'
'les^_'
'encrypt^_'
'Computer_'
'via^_'
'lv_'
'street^_'
'men^_'
'reg'
'002'
'Siddhi^_'
'UI'
'Caller^_'
'den_'
'246'
'orders_'
'node2_'
'Api'
'Cookies_'
'Fat'
'Bee^_'
'Pet'
'ving^_'
'TA^_'
'ABC^_'
'flags^_'
'Downloader_'
'ern'
'sat'
'rio^_'
'hack'
'\\"]'
'verifier_'
'products_'
'POOL\u^_'
'nti'
'79^_'
'first'
'601'
'LF^_'
'3.'
'entities^_'
'fle'
'JMX^_'
'Lease^_'
'Pi^_'
'∅∅∅∅'
'Dep'
'Listing^_'
'sit'
'140'
'node\u^_'
'ify^_'
'Oc'
'Since_'
'compose^_'
'allocation^_'
'003'
'SDK^_'
'aggregate_'
'vas'
'Fraction^_'
'Position'
'Win'
'increase^_'
'ets_'
'Cob'
'GB^_'
'Sh'
'eq'
'LIGHT\u^_'
'Documentation^_'
'are'
'Cas'
'Mat^_'
'nik'
'var\u^_'
'fun_'
'hard'
'Listing_'
'pwd_'
'DELIMITER_'
'lem'
'wel'
'dle'
'used_'
'Mismatch^_'
'dy^_'
'Languages_'
'compressed^_'
'227'
'yangtools_'
'arrow_'
'random'
'XC'
'JT'
'Gb'
'goal_'
'TCP^_'
'music'
'Pie^_'
'break'
'1.0D_'
'RE^_'
'today_'
'lang'
'bf^_'
'robot^_'
'gon'
'ust'
'Sca'
'art^_'
'reject^_'
'delete\u^_'
'Gate^_'
'ato'
'Graph'
'SL^_'
'eco'
'mu_'
'bmp_'
'0.01_'
'messenger_'
'STATIC_'
'mz'
'LIST^_'
'312'
'small'
'xs^_'
'lis'
'Trees_'
'converter^_'
'ein'
'hit'
'resolution_'
'lue'
'drawer_'
'bea'
'247'
'*)'
'est'
'KB^_'
'Displayed_'
'TAB_'
'Max'
'Pseudo^_'
'SCALE_'
'1.0'
'bur'
'Swi'
'launch_'
'LIKE^_'
'Stra'
'BORDER\u^_'
'SIN'
'Financial^_'
'Mor'
'pin_'
'od^_'
'Us_'
'CODE^_'
'1e-'
'var3'
'vertex'
'Maps^_'
'cod^_'
'AFTER\u^_'
'Bp'
'Bracket^_'
'Associated^_'
'∅∅∅∅∅∅∅∅∅^_'
'bpmn^_'
'190'
'Float'
'Div_'
'10.0_'
'MOVE_'
'logs^_'
'Cho'
'Bt'
'routes_'
'find\u^_'
'Clob_'
'format'
'rid'
'PROXY\u^_'
'PARENT\u^_'
'ow'
'Mem_'
'rapidminer_'
'Outbound^_'
'460'
'dec^_'
'La^_'
'353'
'MINUTES_'
'unmarshall_'
'wa^_'
'criterion_'
'lifecycle_'
'"<'
'process'
'jarg2_'
'STD'
'scroll'
'Subc'
'wk'
'association^_'
'accept'
'solution^_'
'cing^_'
'64'
'Mount^_'
'pages^_'
'dal'
'Lock'
'fy^_'
'ite'
'yf'
'Converters_'
'SOL'
'Jm'
'Joda^_'
'conf'
'ime'
'Keyed^_'
'eff'
'Transform'
'ox^_'
'Micro^_'
'181'
'Merchant^_'
'BIT\u^_'
'fed'
'Aj'
'Ecore^_'
'what^_'
'ibatis_'
'hap'
'Re'
'0x0000'
'wd'
'2c'
'pn_'
'UA'
'Ib'
'participant_'
'				^_'
'NOM'
'mol'
'Or_'
'pub'
'album_'
'editors_'
'Ze'
'float'
'TA'
'ard_'
'P2^_'
'Classification_'
'US'
'arti'
'replace'
'lst_'
'IDENTITY_'
'btn'
'prod^_'
'ARCH'
'Snmp^_'
'Keeper_'
'188'
'Desktop_'
'Under'
'synchronized^_'
'Protected^_'
'segment'
'Sarl^_'
'PLAN'
'OT'
'weka_'
'pulsar_'
'facet_'
'EN\u^_'
'''^_'
'Expired^_'
'ssi'
'Cf'
'BUILD^_'
'Strings^_'
'jq'
'ify_'
'arte'
'hl^_'
'USA^_'
'under'
'Insensitive^_'
'analyze^_'
'inverse^_'
'Hi^_'
'ations_'
'Prototype_'
'du^_'
'ZK^_'
'},\\^_'
'Triple^_'
'Oa'
'gat'
'samples^_'
'cel'
'icon\u^_'
'fk^_'
'Ai^_'
'"∅∅∅∅'
'GENERATED\u^_'
'GMT^_'
'asn1_'
'offer^_'
'Cert_'
'014^_'
'MIME\u^_'
'Nome^_'
''''
'BE\u^_'
'kra'
'Postal^_'
'Ints_'
'Closing^_'
'Learning^_'
'lf^_'
'401'
'Sp'
'Dig'
'mul_'
'Jasper^_'
'wiki'
'ea_'
'Fixture^_'
'bio_'
'digest^_'
'People^_'
'iter^_'
'fully^_'
'999'
'pow'
'elem'
'Highlight_'
'\\"\\"'
'265'
'freq_'
'305^_'
'live'
'HALF\u^_'
'avatar_'
'drop_'
'degree_'
'rom'
'Expanded^_'
'cap'
'ba'
'Prefs^_'
']*'
'GE_'
'Mal'
'MESSAGES_'
'FIN'
'Repositories_'
'Instrumentation_'
'Formatting_'
'sal'
'Press_'
'a0_'
'addon_'
'ig_'
'PH'
'left'
'Md^_'
'VAR'
'STOR'
'Rh'
'Instrument_'
'factories_'
'Cm'
'TM^_'
'ppe'
'IU'
'classification_'
'Tag'
'REPORT\u^_'
'Pot'
'Imported^_'
''('_'
'Cc^_'
'Delayed^_'
'rec'
'beat'
'REF\u^_'
'COMMENT\u^_'
'encrypt_'
'in'
'REF'
'301'
'decoded^_'
'factor^_'
'ready_'
'iterable_'
'alarm_'
'artifacts_'
'Privilege^_'
'TIC'
'137^_'
'UP^_'
'javadoc^_'
'NEGATIVE\u^_'
'iter'
'VE_'
'Fla'
'mat^_'
'elastic'
'ers'
'"%'
'Array'
'traversal_'
'marc'
'bility_'
'Medium^_'
'DOMAIN\u^_'
'187'
'unable^_'
'md5_'
'USER'
'pig_'
'Subscriber^_'
'Graphical^_'
'Chest_'
'CAL'
'Backup_'
'nom_'
'mut'
'asa'
'Facade^_'
'rei'
'act'
'Black'
'rsp_'
'Distinct^_'
'Perf^_'
'Dia'
'VARIABLE\u^_'
'gt_'
'asterix_'
'cam_'
'pr^_'
'b0_'
'DFS^_'
'CLOSE\u^_'
'undo_'
'130_'
'Playlist_'
'c3_'
'overlay^_'
'Star_'
'Privilege_'
'claim^_'
'Matched^_'
'cr^_'
'partitions_'
'`.`^_'
'ident_'
'fx'
'Computer^_'
'ram'
'Tc'
'Ban'
'Provided^_'
'NT_'
'2131'
'flat'
'Pet_'
'Vec3_'
'tipo_'
'opera'
'bj'
'CONF\u^_'
'deb'
'Con'
'letter^_'
'cap_'
'PF'
'toolbox_'
'CPU^_'
'SF^_'
'SVN^_'
'inde'
'coa'
'vote^_'
'click'
'Star'
'Cut^_'
'iterator^_'
'Class\u^_'
'Free'
'Union_'
'air_'
'update\u^_'
'Banner^_'
'artist_'
'dic'
'Opts_'
'ile'
'combined^_'
'onc'
'Match'
'Statuses_'
'Rest'
'References^_'
'bis_'
'compound^_'
'attach_'
'know'
'Yu'
'Fre'
'rv'
'indicator_'
'Sec'
'Pm'
'fv'
'men'
'ive'
'Constraints^_'
'actors_'
'133'
'store'
'Mac'
'Ice^_'
'incoming_'
'LITERAL\u^_'
'Shopping^_'
'1000000_'
'Mono'
'hr'
'hei'
'bi'
'magic_'
'CATEGORY_'
'SUR'
'337'
'foobar^_'
'deegree_'
'yy'
'definitions_'
'Ben'
'EXPRESSION_'
'RE'
'Mon'
'lus'
'arc_'
'BY_'
'bytes'
'DL^_'
'PT^_'
'soft^_'
'Plane_'
'splits_'
'wire_'
'map\u^_'
'142'
'vers'
'overlay_'
'level'
'spi'
'yan'
'Fi^_'
'000000^_'
'pur'
'370'
'record'
'throws^_'
'side'
'Checksum^_'
'reduce_'
'5.0_'
'ball_'
'included^_'
'Computation^_'
'lk'
'007^_'
'gender^_'
'Continuous^_'
'Shared_'
'Lifecycle_'
'Markers_'
'preview_'
'wave_'
'Assets^_'
'ally^_'
'tex_'
'Cap'
'Tier_'
'indi'
'warehouse^_'
'ante'
'Read'
'importer_'
'reactor_'
'Ns^_'
'Step'
'Did^_'
'Another^_'
'AI_'
'275'
'124'
'guid_'
'Dark^_'
'Result'
'ship'
'"='
'Through^_'
'Showing_'
'Transient^_'
'0x20_'
'ox'
'vel'
'stunner_'
'191'
'")'
'baidu_'
''),^_'
'Har'
'PATTERN\u^_'
'wm_'
'scan\u^_'
'lac'
'omt_'
'501'
'Deb'
'Nd'
'Mouse_'
'attr'
'objs_'
'ht^_'
'Book'
'watch'
'116'
'dam'
'VAR\u^_'
'Expiry^_'
'zh'
'argv^_'
'CB'
'isi'
'FIELDS_'
'gate_'
'recovery^_'
'vis^_'
'inc'
'ada'
'txt\u^_'
'ude'
'apple^_'
'owl^_'
'Stride_'
'Submit_'
'Lexical^_'
'IES_'
'ODE'
'Coa'
'profiles_'
'Pac'
'Ver'
'mis'
'keys'
'ech_'
'esa_'
'eu^_'
'ann_'
'Invoke_'
'ACT'
'rna'
'refs_'
'000'
'510'
'imported^_'
'Docs^_'
'dfs_'
'CONS'
'Thi'
'Lower_'
'Gc'
'Lists^_'
'goto^_'
'suite^_'
'ete'
'AZ'
'Repeat_'
'lite_'
'COLUMN^_'
'EJB^_'
'FACTOR_'
'STR\u^_'
'APP'
'read\u^_'
'FAST'
'PASS'
'CAT'
'import'
'ord'
'oauth_'
'Categories^_'
'Endpoints_'
'16'
'w\u^_'
'dad_'
'DECIMAL_'
'0x7f02000'
'013^_'
'REFERENCE_'
'cond'
'Circular^_'
'watch_'
'Sliding^_'
'ham'
'Recipes_'
'BEA'
'iteration^_'
'EV'
'lic'
'SUM^_'
'Pad^_'
'LIN'
'taobao_'
'Estado^_'
'ontology_'
'aro'
'fa_'
'ding_'
'∅∅∅∅"_'
'311^_'
'setter_'
'INIT\u^_'
'scene2d_'
'reserved^_'
'Obj'
'sets_'
'dynamic'
'assets_'
'Cron^_'
'Fix'
'indices^_'
'Desired^_'
'prep^_'
'Ver_'
'Retriever_'
'Weather_'
'xdsml_'
'sa'
'Gri'
'eca'
'DEP'
'nte_'
'Vn'
'Pet^_'
'mul'
'Acc^_'
'Filters^_'
'communication_'
'nabucco_'
'real_'
'title'
'pot'
'imageio_'
'Infer'
'LOW_'
'emit_'
'Tin'
'Objective_'
'raf_'
'YY'
'string\u^_'
'Streams^_'
'118'
'EM^_'
'ois_'
'EXCEPTION\u^_'
'une'
'ual'
'Dependencies^_'
'Amt_'
'MOVE\u^_'
'PW'
'form'
'Pen'
'handle'
'sending^_'
'182'
'FT'
'zn'
'roc'
'NE_'
'CANNOT\u^_'
'rac'
'land'
'Reg'
'jcas_'
'impl'
'infinispan_'
'vis_'
'Suggestion_'
'feature'
'352'
'En^_'
'Drop'
'Label4_'
'FILE'
'Conc'
'Movement_'
'FILE^_'
'Tb^_'
'ort'
'REMOTE\u^_'
'303'
'ib'
'Fs'
'Ignoring^_'
'kw'
'state\u^_'
's2^_'
'Assignments_'
'hh'
'Grade^_'
'Ot'
'axiom_'
'CH_'
'Construction^_'
'both^_'
'0x7f0600'
'Jd'
'mer_'
'abo'
'Tunnel^_'
'Near^_'
'ting_'
'inte'
'display'
'jpa'
'logs_'
'transform'
'video'
'descriptors_'
'NAME'
'"<?^_'
'cent'
'HL'
'sso'
'INDE'
'uit'
'zero'
'color\u^_'
'Resp^_'
'walk^_'
'esp'
'phi_'
'Npc^_'
'Ti^_'
'cand'
'Kill^_'
'libthrift091_'
'Dic'
'Use'
'ri'
'1.1'
'MATCH_'
'through^_'
'Alternate^_'
'Guest^_'
'mismatch^_'
'ota'
'User\u^_'
'Packets_'
'notes^_'
'Clicked^_'
'Mod'
'by\u^_'
'Expectations_'
'stone^_'
'jaxb^_'
'10'
'Fi'
'EL_'
'Spo'
'Handshake^_'
'0x7f0a00'
'Mysql^_'
'ino'
'Rs^_'
'Leg_'
'VF'
'Vectors_'
'content\u^_'
'Observers_'
'COMPLETE_'
'ABSTRACT_'
'reload_'
'FUNCTION_'
'ROW^_'
'dip'
'f2'
'Dr'
'x3_'
'Cache'
'openmrs_'
'JB^_'
'plugin'
'sy'
'logic^_'
'0x04_'
'accepted^_'
'WARN_'
'into_'
'EL'
'offsets_'
'akt'
'sme'
'Guild^_'
'Spawn_'
'requests^_'
'Align^_'
'Density_'
'hel'
'flo'
'market_'
'flex'
'ORM'
'move'
'kit'
'bl^_'
'cipher^_'
'Hs'
'mine'
''))'
'delete'
'Par'
'Detached^_'
'locked^_'
'Sys'
'Splash^_'
'mur'
'round'
'zc'
'CANCEL\u^_'
'Deletion^_'
'DEL'
'Tool'
'Perun^_'
'assert'
'Grade_'
'quartz_'
'bei'
'CLASS'
'upload'
'SAL'
'Object1_'
'SENSOR\u^_'
'Skylark^_'
'bli'
'date\u^_'
'poly'
'Pos'
'Tipo_'
'Peptide^_'
'1496'
'Href_'
'h1_'
'dog^_'
'Skip_'
'dead^_'
'strategy^_'
'Wr'
'Exam^_'
'EJB_'
'Booking^_'
'RED'
'Counting^_'
'0xFF'
'obo'
'Gol'
'hook_'
'TLS^_'
'prof'
'physics_'
'pan_'
'137'
'PK^_'
'lr_'
'hold^_'
'completed_'
'OX'
'Create'
'tia'
'expanded^_'
'Print'
'ins^_'
'cliente_'
'dig'
'uj'
'Ret^_'
'Materials_'
'Minus^_'
'T2'
'route'
'walk'
'parcel_'
'our'
'Authenticator^_'
'land_'
'kr_'
'@"_'
'jad'
'sections_'
'rn_'
'preferences^_'
'qd'
'Bd'
'Assembly^_'
'SQL'
'Sand'
'never^_'
'Ov'
'units^_'
'but'
'remain'
'hostname^_'
'pace_'
'Adaptor_'
'ground^_'
'cart'
'energy^_'
'EN^_'
'Prop'
'Act'
'bounds^_'
'Road^_'
'status\u^_'
'Tweet^_'
'Positive_'
'Compatible^_'
'Og'
'bill'
'S2_'
'Dar'
'initial_'
'LINK'
'gree'
'{\\"^_'
'Account'
'IMP'
'visibility^_'
'mall'
'Aggregated^_'
'}/{^_'
'oti'
'YES\u^_'
'META'
'LOCK_'
'first\u^_'
'Specifier_'
'Ops^_'
'DAY^_'
'farm'
'raw'
'dfa'
'water_'
'skill_'
'GD'
'dbflute_'
'severity_'
'cos'
'ken_'
'XP'
'PROTOCOL\u^_'
'noc'
'LY_'
'Expression'
'Sys_'
'Models^_'
'EDI'
'274'
'ey^_'
'Playing^_'
'Forwarding^_'
'Functions^_'
'status'
'buy^_'
'shin'
'proc'
'based^_'
'REM'
'Dan'
'avi'
'Tracer_'
'ENT'
'ERR_'
'checkpoint^_'
'zimbra_'
'backup_'
'Hyper^_'
'Element\u^_'
'Estado_'
'Ant^_'
'Order'
'jen'
'Mismatched^_'
'pic_'
'gram^_'
'Pv'
'103_'
'codigo^_'
'Enclosing^_'
'Imp_'
'BAR'
'written^_'
'ations^_'
'bigint^_'
'Schemas_'
'event\u^_'
'TD^_'
'digits_'
'HTML\u^_'
'GZIP^_'
'Base\u^_'
'BT^_'
'Elk^_'
'Kr'
'quality_'
'spin'
'zza'
'loading_'
'tos'
'P1'
'LY\u^_'
'BAR\u^_'
'Overview^_'
'HR'
'Serialize_'
'Lab'
'microsoft^_'
'bel'
'email'
'Entered_'
'TER'
'Players^_'
'Bio^_'
'ALTER^_'
'1998^_'
'Stax^_'
'conta'
'rig'
'Central^_'
'ma'
'444'
'journal^_'
'boot^_'
'kernel^_'
'protocol'
'WEB'
'405'
'Minimum_'
'nickname_'
'caller^_'
'Free_'
'Neighbor^_'
'og^_'
'Feat^_'
'next\u^_'
'dependencies^_'
'Orders^_'
'Intervals_'
'100000_'
'LAZY_'
'Proc_'
'suffix^_'
'cha_'
'replica^_'
'dba'
'invoice_'
'nvae_'
'vent'
'surface_'
'580'
'Pb^_'
'Ind_'
'nav'
'Prompt^_'
'Nd4j_'
'kat'
'Vlan^_'
'Mc'
'\u\u\uCARET\u\u\u\u'
'VIDEO\u^_'
'Im^_'
'rer'
'mpi'
'229'
'Gm'
'Thumb^_'
'retain^_'
'components^_'
'cali'
'design'
'ire'
'instruction^_'
'Race_'
'Cond_'
'Fl'
'Simulation_'
'Xa'
'Une'
'vr'
'ail_'
'Cause^_'
'opi'
'Pic^_'
'ATA'
'DEF'
'swe'
'wf'
'ERT'
'plan'
'ttl_'
'Id2_'
'Pack'
'jump^_'
'wizard^_'
'++'
'acl_'
'Expanded_'
'fq'
'MF'
'sin^_'
'seg^_'
'sad'
'ray'
'CAP'
'msg\u^_'
'[-^_'
'robo'
'tex'
'REN'
'299'
'crop^_'
'Play'
'"\\\\"_'
'ENTITY_'
'subt'
'tone_'
'ence_'
'legacy^_'
'Animated^_'
'374'
'Emp'
'libraries_'
'simulation^_'
'Component'
'T4_'
'alex'
'spr'
'ility_'
'ET\u^_'
'usr^_'
'00'
'activiti_'
'campaign^_'
'shipping^_'
'picture_'
'ING'
'INTENT\u^_'
'sf^_'
'ous_'
'ew_'
'endi'
'press^_'
'footer^_'
'Titles_'
'ype'
'Consistency^_'
'BEFORE\u^_'
'Intersect'
'nes_'
'Exce'
'?)"_'
'Cap^_'
'Live_'
'Jwt^_'
'pet'
'outer_'
'An'
'75'
'inp'
'books_'
'PGP^_'
'             ^_'
'!\\^_'
'die'
'bag_'
'built^_'
'Dn_'
'Action\u^_'
'nco'
'zon'
'pres'
'LS_'
'cube'
'NCE\u^_'
'Bytecode^_'
'Gro'
'Dex^_'
'272'
'MER'
'Tier^_'
'Pieces_'
'ISO'
'cond^_'
'thumbnail^_'
'PC_'
'exce'
'GRA'
'SPEED_'
'pj'
'sos_'
'conc'
'transfer'
'rre'
'unb'
'TK'
'ROLE_'
'Spannable^_'
'BUILD\u^_'
'"∅∅'
'Get'
'RB'
'tz'
'Inclusive_'
'Evict'
'Trade_'
'fit_'
'phi'
'human^_'
'XT'
'Little^_'
'Closing_'
'Tensor^_'
'440'
'abi'
'Del^_'
'list1_'
'LP'
'Dynamo^_'
'eso'
'gla'
'find'
'140_'
'schemas_'
'proj^_'
'archi'
'331'
'energy_'
'Technical^_'
'Incremental^_'
'CTRL\u^_'
'mag'
'att'
'times'
'Menu'
'nasa_'
'GR'
'ERA'
'shu'
'gle'
'p'
'facebook^_'
'jl^_'
'rn^_'
'e3_'
'gov^_'
'Accumulo^_'
'??'
'380'
'Msg'
'cause^_'
'Force_'
'Act_'
'Start'
'ctl'
'BT'
'str\u^_'
'UG'
'ET^_'
'Synchronization^_'
'Accepted^_'
'deploy_'
'r1'
'Hystrix^_'
'ense'
'CAN\u^_'
'Cached_'
'piece^_'
'ISE'
'extern_'
'Templates^_'
'aim'
'\\")'
'med'
'geo_'
'getenv_'
'ARI'
'strict^_'
'012'
'Mgt^_'
'Dis'
'cob'
'anim^_'
'school^_'
'distinct_'
'cardinality_'
'xw'
'pitch_'
'key1_'
'00000'
'amb'
'opene'
'obs_'
'Fade^_'
'ens'
'Zi'
'Routing_'
'prompt^_'
'unpack^_'
'308'
'Pres'
'375'
'TY\u^_'
'de'
'Quad_'
'Palette_'
'hbase^_'
'134'
'Craft_'
'apis^_'
'GB'
'oca'
'SYNC\u^_'
'CG^_'
'104_'
'F1'
'AST'
'generation^_'
'AUTO_'
'Yaw_'
'Code\u^_'
'stone_'
'WA'
'RF^_'
'DISABLED_'
'nif'
'NEXT\u^_'
'Dsl^_'
'xa^_'
'Short'
'ACL^_'
'when\u^_'
'Indent^_'
'PG'
'jun'
'Expression\u^_'
'social_'
'chosen^_'
'jx'
'clock^_'
'nota'
'Son'
'Swift^_'
'API'
'oscm_'
'cer'
'343'
'NK'
'Specified^_'
'ys^_'
'0000_'
'gh^_'
'Process'
'Nested_'
'0.2_'
'Recording_'
'108'
'ili'
'sip_'
'Mix'
'ase'
'WS_'
'modification^_'
'activation^_'
'swipe^_'
'General_'
'195'
'aca'
'two'
'208'
'webkit_'
'projection^_'
'molgenis_'
'aps'
'ded^_'
'4.0_'
'canonical^_'
'slots_'
'Partitioned^_'
'X1_'
'STARTED_'
'189'
'GA^_'
'border'
'Legend^_'
'Regression^_'
'00000^_'
'Recursive_'
'DONE_'
'iu'
'animate^_'
'migration^_'
'cou'
'RV'
'n3_'
'But^_'
'hint^_'
'dimen_'
'ATI'
'Reload^_'
'vec'
'Beta^_'
'Chromosome_'
'isset\u^_'
'Ignored^_'
'ek_'
's4_'
'Div^_'
'LB'
'potential^_'
'CANCEL_'
'nse'
'var10_'
'Que'
'WC'
'SCOPE_'
'Clipboard^_'
'SETTINGS_'
'CE^_'
'dk'
'ites'
'XA'
'DOMAIN_'
'334'
'Meeting^_'
'Fc'
'cq'
'OP^_'
'Iso^_'
'Dynamic_'
'OE'
'nh'
'og'
'San'
'IC_'
'Gre'
'DH'
'0x01'
'Bee'
'Sp^_'
'Modules^_'
'kbase_'
'uti'
'PM^_'
'cmd'
'xy'
'Emoji_'
'Cal_'
'256'
'elt'
'AN^_'
'239'
'match'
'contact'
'Ig'
'Qu'
'Secure_'
'Datum^_'
'osi'
'Tweet_'
'ESC'
'Poly'
'UL'
'115_'
'cg_'
'caps_'
'Numbers^_'
'ADV'
'CO^_'
'blocking^_'
'uc_'
'MQ'
'tooltip_'
'lz'
'broad'
'Linux^_'
'coverage^_'
'nb_'
'nm_'
'macro^_'
'Mag'
'12\u^_'
'CK\u^_'
'Fast'
'Cliente^_'
'Cancelable_'
'return'
'isa'
'(),^_'
'mov'
'2s'
'rectangle_'
'design^_'
'Ui'
'Nombre^_'
'SCROLL\u^_'
'HTTP_'
'recorder_'
'come'
'access'
'stroke_'
'Xl'
'Mappings^_'
'BACK\u^_'
'UNDEFINED_'
'Species_'
'birth^_'
'320^_'
'Sco'
'Dev_'
'All'
'Red'
'creator^_'
'Hor'
'notifications_'
'vcs_'
'nut'
'expected'
'Noun^_'
'manual^_'
'ible^_'
'"----------\\^_'
'Syn'
'Sell'
'Cp^_'
'Corner^_'
''>"_'
'Palette^_'
'Combination_'
'sensor'
'xp_'
'Edit'
'nde'
'sink^_'
'labels^_'
'Am'
'356'
'116_'
'row\u^_'
'Heading_'
'yl'
'feed'
'Logo^_'
'EQUALS_'
'ull'
'checksum_'
'S'
'Entity'
'uns'
'Threads^_'
'Javascript^_'
'enemy^_'
'Minimal^_'
'board'
'Natural^_'
'Bc'
'BIN'
'ystem_'
'Deprecated^_'
'ALPHA_'
'timeline_'
'AK'
'Fixed_'
'Rendered^_'
'gram_'
'Dt_'
'MY\u^_'
'Propagation_'
'give^_'
'Phi'
'Heartbeat^_'
'ZA'
'Sf'
'jmx^_'
'ish'
'dec_'
'ball'
'timetable_'
'UNC'
'Trip_'
'installed^_'
'bot'
'Dirty^_'
'MMM^_'
'parameter'
'';'_'
'411'
'Tooltip^_'
'Apps_'
'minute^_'
'Est'
'Tan'
'clusters_'
'Nr^_'
'ENDPOINT_'
'Double'
'CSV_'
'slider_'
'Head'
'Index'
'bluetooth_'
'DEC'
'12345^_'
'unwrap_'
'resize_'
'070'
'cher'
'BR'
'DER'
'disabled_'
'Item\u^_'
'Attempt_'
'aga'
'BON'
'population_'
'Join'
'mesh_'
'opp'
'xn'
'Just^_'
'pod'
'enc_'
'INFO^_'
'wg'
'REGEX_'
'navigate^_'
'Atlas^_'
'declaration^_'
'tour'
'response'
'eb^_'
'Fun^_'
'BA^_'
'355'
'Train_'
'Textures_'
'Sorting^_'
'being^_'
'502'
'rog'
'LEN_'
'budget^_'
'credential^_'
'321'
'pure'
'Inv^_'
'bw'
'Define^_'
'var0_'
'bytecode_'
'TARGET_'
'about_'
'Partner_'
'ass_'
'022'
'Hyperlink^_'
'*\\^_'
'zk_'
'vi_'
'Upper_'
'lp^_'
'Rdf^_'
'NV'
'nd4j_'
'fac_'
'tech'
'107^_'
'gma'
'fest_'
'trees_'
'javas'
'Fort'
'cart^_'
'",'
'0._'
'imo'
'tang'
'DEN'
'marshal_'
'SER'
'AS_'
'Tur'
'tm^_'
'trie_'
'311'
'GENERIC\u^_'
'site'
'm1'
'Nothing^_'
'0.000'
'met'
'mega'
'Joint^_'
'WH'
'POLICY\u^_'
'0x1F'
'sel'
'Pressed^_'
'Main'
'nets'
'fic'
'EX'
'chunks_'
'bug'
'JVM^_'
'Sli'
'fw'
'Snippet_'
'oss_'
'les'
'PKG_'
'resultado_'
'scopes_'
'experimental_'
'buffer'
'KER'
'mil'
'drawer\u^_'
'lda'
'Reactive^_'
'Pokemon^_'
'wr_'
'Panel1'
'Curr^_'
'Startup_'
'circle_'
'Clo'
'Initializer^_'
'Intrinsic^_'
'Limits_'
'tooltip^_'
'orn'
'its'
'Death^_'
'gle^_'
'CK'
'Qt'
'apk^_'
'201_'
'Io'
'qm'
'ities_'
'Mine^_'
'=:^_'
'PS_'
'buf'
'AO'
'Parser$top_'
'Publication^_'
'Yi'
'gold^_'
'dia'
'vert'
'sca'
'spinner\u^_'
'swi'
'jpeg^_'
'ej'
'cost'
'Insight_'
'Fatal^_'
'lum'
'132'
'gear'
'master'
'Balancer_'
'Tree'
'uda'
'yin'
'776'
'Idx^_'
'INC'
'Workbench_'
'fenixedu_'
'Bs^_'
'packets_'
'Vector2^_'
'life^_'
'stro'
'instance'
'envelope_'
'wire^_'
'Ku'
'Declarations_'
'Initializing^_'
'execute'
'Nat'
'('"_'
'SIMPLE\u^_'
'jme3_'
'Availability_'
'futures_'
'watcher_'
'Perm'
'r3_'
'ATTRIBUTES_'
'Pm^_'
'Loc'
'WEB\u^_'
'interest^_'
'Answers_'
'\\\\.^_'
'GPS^_'
'Sampling^_'
'apa'
'303^_'
'jbpm_'
'quarter'
'273'
'ila'
'SCALE\u^_'
'Pl'
'aggregation_'
'Characteristic_'
'lod'
'Level'
'STREAM_'
'bundle'
'Info'
'xt^_'
'orientechnologi^_'
'Lost_'
'external_'
'Choices_'
'170'
'user1_'
'informati'
'bru'
'Quota_'
'windows^_'
'blah^_'
'DRAW'
'110^_'
'journal_'
'Sv'
'Pageable_'
'GG'
'style'
'Scroller_'
'ADD^_'
'220'
'Sho'
'Vector3d_'
'Shop_'
'285'
'ico'
'Fuzzy^_'
'QT'
'210'
'xpath^_'
'imports_'
'war'
'Scr'
'valid'
'visual^_'
'tain'
'staff^_'
'esc'
'COL^_'
'Gatt^_'
'write\u^_'
'rewind_'
'ved^_'
'props^_'
'Gate_'
'Probe^_'
'I32_'
'money^_'
'mple'
'facing_'
'VAL_'
')]'
'wall^_'
'operations^_'
'WP'
'locate^_'
'nei'
'Druid^_'
'Localization_'
'JUN'
'declaring^_'
'infrastructure_'
'430'
'nil_'
'solutions_'
'LOCK\u^_'
'compression^_'
'Trans'
'KV_'
'eto'
'extend^_'
'ose'
'obtain_'
'pers'
'files'
'rent'
'odel_'
'nz_'
'Odf^_'
'Bro'
'outgoing^_'
'Forecast^_'
'pher'
'lop'
'qos_'
'ZI'
'loud_'
'result\u^_'
'b3_'
'$$^_'
'advance^_'
'xy^_'
'nic^_'
'YS'
'PARTITION\u^_'
'153'
'FOLDER\u^_'
'Into_'
'editable_'
'Rese'
'801'
'Add'
'graal_'
'clear'
'AQ'
'readable^_'
'0.00'
'Hostname^_'
'TE\u^_'
'YM'
'Placeholder_'
'Europe^_'
'Uint'
'nad'
'uch'
'qp'
'tracker^_'
'576'
'capacity^_'
'Dd'
'Document'
'Xm'
'When_'
'smo'
'domain'
'SENT'
'front_'
'formal^_'
'304^_'
'gremlin_'
'shrinkwrap_'
'Capabilities^_'
'replacement^_'
'hidden_'
'Response\u^_'
'\\\\\\\\'
'king^_'
'Inheritance^_'
'Acid^_'
'kel'
'my\u^_'
'coordinate_'
'HOME_'
'Paragraph^_'
'na'
'yaml^_'
'lambda^_'
'BL'
'0x00000010_'
'mob'
'M2^_'
'617'
'Updates^_'
'CALL_'
'struct'
'{{^_'
'drools^_'
'vel^_'
'lv'
'qc'
'450'
'social^_'
'SELECTION_'
'resolved_'
'more_'
'ior'
'FIND\u^_'
'copy'
'Grad'
'quest^_'
'REL'
'Published^_'
'trace'
'OPERATION_'
'hou'
'Snow'
'counters_'
'survey^_'
'Pat'
'rail'
'169'
'ho_'
'trino_'
'ster^_'
'0x7f0800'
'SELECT_'
'Crash^_'
'Documentation_'
'nec'
'throw'
'contexts_'
'tte'
'20'
'proj_'
'analyze_'
'Population^_'
'usi'
'enumeration_'
'transactions_'
'BF'
'Detect^_'
'TY_'
'cap^_'
'Fr'
'parse'
'WIN'
'ware^_'
'highest^_'
'Tokens^_'
'tracking^_'
'ima'
'Absolute_'
'Fd'
'qr'
'assertion_'
'BATCH\u^_'
'Gr'
'IV'
'D1'
'Ve'
'onto'
'Hover^_'
'mob^_'
'Unset_'
'127'
'TRANS'
'Appearance_'
'ux_'
'send\u^_'
'direct'
'minor_'
'four^_'
'FULL_'
'ij_'
''['_'
'eal'
'Res'
'307'
'Set\u^_'
'L1_'
'Compress^_'
'900'
'repeat'
'Roll^_'
'styles_'
'STOP\u^_'
'Destroyed_'
'WARNING\u^_'
'Take^_'
'511'
'oct'
'diagram^_'
'480'
'list2_'
'openrdf_'
'moo'
'build'
'Activation_'
'Cal'
'Singular^_'
'Retr'
'Ftp^_'
'288'
'sion^_'
'ik_'
'l1'
'ctrl_'
'AY'
'rar'
'nap'
'271'
'Reading_'
'Tt'
'simulation_'
'Game'
'osc'
'Stacks_'
'fraction_'
'Bomb'
'war^_'
'Sex'
'"%.^_'
'startup^_'
'scalar_'
'S1_'
'Chain'
'Nulls_'
'ctor_'
'VE\u^_'
'job4j_'
'contain'
'difference_'
'co'
'ici'
'cover'
'offline^_'
'icul'
'cde'
'249'
'xen'
'grp^_'
'Xd'
'ENDPOINT\u^_'
'Super'
'gam'
'wh'
'261^_'
'Ore_'
'callable_'
'Domains_'
'Triangle^_'
'Tbl^_'
'Ox'
'357'
'calc'
'mutable\u^_'
'Coding^_'
'Oauth^_'
'4j^_'
'IV_'
'Lim'
'occur'
'Delegating^_'
'ica'
'Gt'
'165'
'209'
'ner^_'
'dent'
'009'
'ANY\u^_'
'screens_'
'Type\u_'
'tj'
'too'
'stock_'
'112^_'
'PL^_'
'mojo_'
'Difference^_'
'030'
'terminal^_'
'Vs'
'MS\u^_'
'Fol'
'reflection^_'
'rus'
'Down'
'strong^_'
'tera'
'rewrite_'
'Navigable^_'
'Sie'
'LN'
'nce'
'Source'
'cw_'
'406'
'Rea'
'codigo_'
'Crafting^_'
'Issues_'
'best_'
'Holiday^_'
'Lt'
'Sil'
'for\u^_'
'bp^_'
'leg'
'XML'
'Conditions^_'
'wallet_'
'avro^_'
'Y1_'
'Forum^_'
'ton^_'
'Ts^_'
'fib'
'bank'
'meet'
'IR_'
'Initialize^_'
'kom'
'underlying^_'
'CLEAR\u^_'
'555'
'2018^_'
'Ack_'
'Trace'
'363'
'xx'
'env'
'hv'
'Xo'
'Compaction^_'
'DOC'
'Jp'
'fun^_'
'dremio_'
'Reducer_'
'LOCAL_'
'ange'
'Pwd_'
'derive^_'
'Flux_'
'E-'
'ME_'
'145^_'
'calculator_'
'Zo'
'dashboard^_'
'`,^_'
'C'
'okhttp_'
'crate_'
'Historical^_'
'Button2_'
'maps'
'fo^_'
'1\u\u^_'
'Sorted_'
'Ingredient_'
'roll_'
'rg^_'
'ario_'
'intervals_'
'escape_'
'Controls^_'
'datum_'
'unre'
'adr'
'Unchecked^_'
'ful^_'
'Paused_'
'Trait_'
'retrieved^_'
'Unordered^_'
'au^_'
'Le^_'
'lam'
'MY'
'detector_'
'326'
'Prev_'
'will_'
'classpath_'
'abort^_'
'gets'
'hop_'
'INSERT\u^_'
'idl'
'∅∅∅∅∅∅∅∅∅∅^_'
'ARG'
'Ul'
'FXML^_'
'chan'
'Checkpoint_'
'sources^_'
'eb_'
'111'
'Pt_'
'tha'
'jvm_'
'rif'
'calculate_'
'Boss^_'
'np_'
'Identification^_'
'iwc_'
'114_'
'uta'
'Morph'
'hh^_'
'Applied^_'
'mount^_'
'ave'
'Ei'
'])"_'
'650'
'rop'
'?)'
'Copy'
'teste'
'PK'
'sic'
'listen^_'
'Chest^_'
'Vpc^_'
'DE\u^_'
'ira'
'Wor'
'tas'
'hm'
'FS'
'320_'
'1.3'
'230'
'win'
'"$"_'
'mage_'
'Spe'
'ika'
'morph'
'Attrib^_'
'unsupported^_'
'Detailed^_'
'todo_'
'ORT'
'openjdk_'
'Cli'
'Membership_'
'cos^_'
'particle^_'
'Deferred^_'
'msi_'
'BUS'
'syncope_'
'HEL'
'Emoji^_'
'house^_'
'cale'
'Cart_'
'update'
'gram'
'FLOW'
'"!"_'
'uel'
'ons'
'major_'
'rol'
'TOP'
'Alter^_'
'CHANGE_'
'Vc'
'LIST'
'mobile'
'141^_'
'operands_'
'Target'
'Inter^_'
'},"_'
'Mix^_'
'prompt_'
'right'
'cmb^_'
'Privacy^_'
'Authz^_'
'Navigator_'
'5F_'
'2009^_'
'write'
'fk'
'Gml^_'
'PAY'
'Motor_'
'#_'
'441'
'buckets_'
'ula'
'e2'
'310'
'Splits_'
'had^_'
'Stateless_'
'minus_'
'Quad^_'
'Sensitivity_'
'Audience_'
'fight'
'313'
'Readable_'
'INTEGER\u^_'
'keep'
'342'
'iron'
'Object2_'
'zzai_'
'Legal^_'
'clean_'
'usa'
'scroll_'
'TF'
'fei'
'Cru'
'330'
'bpmn_'
'281'
'ris_'
'000000'
'ovi'
'other'
'cms^_'
'derived^_'
'nom'
'mot'
'regular^_'
'wl^_'
'NB'
'218'
'seg_'
'prim'
'ML'
'elt_'
'ator^_'
'Gar'
'Glyph^_'
'CONFIGURATION\u^_'
'face'
'etic'
'MEDIA'
'updater_'
'dio'
'workbook_'
'Pump'
'Overflow^_'
'MIN'
'VAL'
'office^_'
'KEYWORD_'
'ack'
'Push_'
'bean\u^_'
'sie'
'422'
'FLOAT\u^_'
'SPR'
'bz'
'conn'
'Shortcut_'
'∅∅∅∅∅'
'Story_'
'Mesquite^_'
'"$.^_'
'ization_'
'Vu'
'FIRST_'
'Eg'
'Escape_'
'60000_'
'Commit'
'dlg_'
'"..."_'
'MANAGE'
'BIG'
':\\"'
'ces_'
'AWT^_'
'0x03_'
'oke'
'360'
'evaluation_'
'tensor'
'topics_'
'Rejected^_'
'Nt'
'Sto'
'fold^_'
'Profiles^_'
'vf_'
'photo'
'price'
'Saml^_'
'12'
'Fluid_'
'id1_'
'909'
'0.1f_'
'g3'
'DIGIT'
'browse^_'
'arc'
'START^_'
'Hack'
'strs_'
'felix_'
'building_'
'Alternative^_'
'rx^_'
'cover^_'
'rp^_'
'L4'
'eci'
'Sai'
'Millis^_'
'RANGE\u^_'
'ient'
'Potential^_'
'rid_'
'ium^_'
'fin_'
'Sequence'
'Deck_'
'Append_'
'mig'
'OTHER'
'ana^_'
'TOOL'
'ling'
'caught^_'
'Lit'
'-%^_'
'Sku^_'
'Para^_'
'jc_'
'warn^_'
'FORM'
'transforms_'
'0.5D_'
'deprecated^_'
'Seconds^_'
'epsilon_'
'Devices^_'
'∅∅o^_'
'Cred'
'Intercept'
'predicates_'
'Calls^_'
'"∅∅∅∅∅∅∅∅∅∅∅"_'
'1001'
'eme'
'TOR'
'NIC'
'Vl'
'Advice_'
'Guard_'
'Guide^_'
'1.5_'
'Zu'
'Ext'
'rf_'
'comment'
'bun'
'seedu_'
'Orc^_'
'SB_'
'por'
'Solve'
'DOM_'
'PART'
'wt_'
'MULTI\u^_'
'far'
'Pra'
'Bookmark_'
'Ws'
'chr'
'Subtype_'
'Kn'
'distribution_'
'grouping^_'
'spark^_'
'jv'
's3'
'mx'
'query\u^_'
'sab'
'CHARSET_'
'excel^_'
'Yo'
'Aw^_'
'conversation^_'
'Transitions_'
'Gray^_'
'story^_'
'336'
'Range'
'WEB^_'
'h2'
'trade_'
'procedure^_'
'ceylon_'
'fel'
'are_'
'sts_'
'its_'
'pan^_'
'BODY\u^_'
'fre'
'decl'
'party_'
'Enumeration^_'
'maps^_'
'TR^_'
'ENTER_'
'ings'
'jj'
'Pag'
'DISTINCT^_'
';&^_'
'cq_'
'Tls^_'
'CDATA^_'
'TN'
'TWO\u^_'
'operand^_'
'cz'
'software^_'
'mei'
'Fab^_'
'Cloud_'
'WB'
'Element'
'olo'
'Hd'
'refactoring_'
'v0_'
'105^_'
'Bs'
'Relationships_'
'Inc^_'
'tude'
'EMP'
'Di'
'tw_'
'ace^_'
'RC^_'
'pair'
'SM^_'
'Clipboard_'
'supplier^_'
'Att_'
'oc'
'rev^_'
'lor'
'cia_'
'Reflection_'
'rea'
'Vec^_'
'med^_'
'y'
'CHECK_'
'eur_'
'0x1f'
'frm^_'
'property'
'158'
'Uc'
'Travel^_'
'sei'
'nel'
'Drug^_'
'BP^_'
'still^_'
'Bean'
'Sky'
'PRODUCT\u^_'
'Mini'
'Simulator_'
'depends^_'
'Prediction^_'
'tuwien_'
'Produto_'
'esper_'
'Load'
'PSE'
'login'
'ond'
'RESOLVE\u^_'
'ND_'
'She'
'matchers_'
'280'
'309'
'tent'
'chas'
'perms_'
'Locales_'
'jo^_'
'Floor^_'
'Been^_'
'test1_'
'Full'
'ral'
'wild'
'Rpc_'
'DFA_'
'fg_'
'IO\u^_'
'select'
'agent'
'from'
'351'
'updates_'
'117'
'nx_'
'126'
'GH^_'
'rag'
'poli'
'log\u^_'
'ejb^_'
'dmn_'
'login\u^_'
'Province_'
'Living_'
'aur'
'math^_'
'4000_'
'Porter^_'
'Times'
'Unsafe_'
'Deal'
'peri'
'fst'
'tested_'
'hard^_'
'Time\u_'
'std_'
'helper^_'
'X2_'
'Something^_'
'sms'
'Pop'
'ont'
'Ind'
'myp'
'REGION_'
'Leader_'
'Jt'
'Comm'
'test1'
'SQ'
'hud'
'616'
'Report'
'505'
'ction_'
'j2'
'Boxes_'
'ko_'
'Serialize^_'
'Ordinal_'
'Contributor_'
'bluetooth^_'
'POP'
'castor_'
'MANAGER_'
'RL'
'minor^_'
'Hl'
'HER'
'329'
'stic'
'sai'
'pred^_'
'Mark'
'think'
'117^_'
'GER'
'pick'
'grade^_'
'"!'
'.5_'
'fac'
'Ow'
'Mg'
'Nl'
'initializer_'
'SPI'
'Friend_'
'421'
'ik'
'anager_'
'212'
'ory^_'
'concurrent^_'
'datatypes_'
'crawler_'
'beta'
'PRI'
'sure^_'
'ert'
'cook'
'Costs_'
'vf'
'local\u^_'
'dataf'
'modifier^_'
'norm'
'ebu'
'RUN\u^_'
'424'
'Accumulator_'
'invoker_'
'166'
'Pur'
'789'
'Bet'
'TOKEN^_'
'ank'
'flag'
'Mandatory^_'
'test0'
'610'
'Wall_'
'Link'
'Dec^_'
'numbers^_'
'Successfully^_'
'IDS_'
'Cal^_'
'dro'
'Queued^_'
'Texts_'
'Concurrency^_'
'Met'
'Standard_'
'buttons^_'
'MAX^_'
'kk_'
'Cleanup_'
'ipe'
'WORD_'
'convert'
'XSL'
'Comma^_'
'ject'
'filter\u^_'
'say^_'
'combine^_'
'Study_'
'kai'
'AR_'
'Ray^_'
'inter'
'dfs^_'
'Zh'
'\\\'
'notifier_'
'131^_'
'FOO^_'
'Sequences_'
'left\u^_'
'Volley^_'
'cli^_'
'Web_'
'repl'
'codec^_'
'quar'
'One'
'key2_'
'Books^_'
'datasource^_'
'RT_'
'Stages_'
'Fetch_'
'DW'
'Vote_'
'uth_'
'TCH'
'Clean_'
'lambda'
'194'
'ome_'
'latitude^_'
'Abort^_'
'412'
'sx'
'cab'
'oft'
'gem'
'IMPORT'
'audit_'
'XD'
'q2'
'Rs_'
'deco'
'daily^_'
'Null'
'Tracks_'
'Macro_'
'VERTICAL\u^_'
'uno'
'ost_'
'BD_'
'Definitions^_'
'Replacement^_'
'zz_'
'etomica_'
'ANNOTATION\u^_'
'Spy_'
'rgb^_'
'look'
'0x40_'
'uv'
'ther^_'
'languages^_'
'PARTITION'
'kur'
'ath'
'ZZ'
'Freq^_'
'Ann'
'PROPERTIES\u^_'
'spot'
'Xp'
'postal^_'
'jst'
'Rol'
'uk^_'
'ever'
'Select'
'size\u^_'
'243'
'bool'
'information_'
'cro'
'pie'
'account'
'ngs'
'Info\u^_'
'0x7f05000'
'vote'
'Minute^_'
'400^_'
'136'
'ki^_'
'lng_'
'erc'
'n52_'
'Chess^_'
'wx^_'
'fv_'
'Well^_'
'346'
'remote'
'near^_'
'codec'
'zin'
'robot'
'histogram_'
'Project'
'LEN'
'restlet_'
'bid^_'
'connections^_'
'Animal_'
'scan'
'schemes_'
'choices_'
'LAN'
'observable^_'
'PERIOD_'
'ned^_'
'About_'
'"\\\\."_'
'jpa^_'
'movie'
'Mozilla^_'
'Highlighter_'
'pap'
'coll^_'
'Species^_'
'exe'
'wing'
'exporter_'
'Layout'
'FRAGMENT\u^_'
'ag^_'
'u\u^_'
'Persister_'
'Continue^_'
'product'
'jsp'
'scr'
'Navigation_'
'letter_'
'({^_'
'solve_'
'COL'
'Cos'
'Cond'
'perm^_'
'Quotes_'
'Predefined^_'
'325'
'dn^_'
'JOIN\u^_'
'drag'
'Horizontal_'
'Flags^_'
'ock'
'Comment'
'todo^_'
'Places_'
'shapes_'
'got'
'ASCII^_'
'234'
'station_'
'LF'
'Fitness_'
'spec'
'agr'
'active0_'
'ebi_'
'partner^_'
'fallback^_'
'Good_'
'PROJECT_'
'com\u^_'
'Pig^_'
'algo_'
'STEP\u^_'
'Server'
'exe^_'
'FLOW\u^_'
'781'
'Integer'
'Tuples_'
'Expansion^_'
''+'_'
'Accounting^_'
'idx'
'Tolerance_'
'Discrete^_'
'pix'
'temperature_'
'Py'
'Mobile_'
'drive^_'
'rot'
'SEARCH_'
'Elapsed^_'
'lim'
'729'
'vv'
'relationship_'
'CR_'
'Mirror^_'
'gn'
'online_'
'cul'
'allow'
'})"_'
'curator_'
'mozilla_'
'LESS\u^_'
'categories^_'
'pivot_'
'Beacon^_'
'r∅'
'BOX\u^_'
'enti'
'dif'
'yun'
'Chapter^_'
'GC_'
'templates^_'
'normal'
'SET'
'251'
'SYSTEM_'
'bigdata_'
'rv^_'
'oco'
'negate_'
'var11_'
'less'
'Dead_'
'iq'
'debugger_'
'DOWN\u^_'
'108_'
'>)'
'annotate_'
'definitions^_'
'zx'
'Thumbnail_'
'ute^_'
'fli'
'export'
'Resource'
'pieces_'
'eucalyptus_'
'channel'
'Pagination^_'
'Ls'
'LLVM^_'
'787'
'toolbar^_'
'select\u^_'
'cut_'
'apt'
'PI^_'
'vr_'
'cj'
'RUN'
'dropwizard_'
'band_'
'Ability^_'
'Ice_'
'algebra_'
'dal_'
'503'
'Persisted^_'
'mess'
'Roo'
'Canceled^_'
'Annotation\u^_'
'Enter_'
'TENANT\u^_'
'LOAD_'
'sirma_'
'pig^_'
'Deposit^_'
'BD^_'
'Serv'
'Bl'
'SSH^_'
'":'
'unlock^_'
'tech^_'
'Ii'
'780'
'403'
'Len'
'child'
'stan'
'ica_'
'REFERENCE\u^_'
'Sg'
'134^_'
'unmarshal_'
'acao_'
'800'
'protein^_'
'Dim'
'Customers^_'
'PROP'
'Floor_'
'tto'
'Zip'
'Upload'
'killbill_'
'ehcache_'
'observe^_'
'"<∅<∅<∅<∅<∅<∅<∅^_'
'animate_'
'Delegation^_'
'080'
'boundary^_'
'BLO'
'wiki_'
'network'
'2005^_'
'poll'
'eed'
'287'
'vs^_'
'Vds^_'
'nto'
'luc'
'eur^_'
'dea'
'XE'
'polygon_'
'\\")"_'
'fl_'
'Ant'
'sale^_'
'focus_'
'IDLE_'
'ura_'
'millis^_'
'explicit^_'
'esto'
'l2'
'Libraries_'
'xco'
'tec'
'applied^_'
'render'
'Ou'
'Dec'
'wa_'
'feat'
'Rn'
'SION'
'Field1_'
'Datasource^_'
'ak^_'
'REA'
'IES\u^_'
'element\u^_'
'Price'
'odo'
'DOC\u^_'
'advance_'
'second'
'Arr^_'
'chunk'
'emitter_'
'tma'
'activ'
'CREATOR_'
'gap_'
'sda'
'shard_'
'ago'
'Locations^_'
'nom^_'
'disa'
'Seek'
'211'
'Fp'
'Cls_'
'MH'
'ual^_'
'122^_'
'pst_'
'MG'
'Array2'
'tracer_'
'experiment_'
'Fri'
'Terrain^_'
'Q\u^_'
'BYTES\u^_'
'168'
''*'_'
'Similarity_'
'Quest_'
'List1_'
'dims_'
'ools_'
'SO^_'
'Gps^_'
'production^_'
'520'
'Breakpoint^_'
'LOCAL'
'HEAD_'
'ega'
'0001'
'MEMORY\u^_'
'mix'
'nn^_'
'ELE'
'ain^_'
'HIGH_'
'\\":\\"'
'\\"></^_'
'706'
'hip_'
'attached^_'
'adaptee_'
'Ir'
'016'
'grey'
'pub_'
'Directive_'
'60'
'iar'
'compiled^_'
'Loss^_'
'414'
'Disp'
'p4_'
'LONG'
'Service'
'565'
'ger^_'
'svn^_'
'Trx^_'
'EXCE'
'DIM'
'ib^_'
'helger_'
'AN_'
'With'
'attachments_'
'rob'
'snake'
'fj'
'102^_'
'disco'
'GV'
'678'
'aval'
'KR'
'Br'
'The'
'sport'
'bai'
'nte^_'
'Bin'
'issues_'
's0_'
'mock'
'uw'
'cord'
'ROW'
'opena'
'intersection_'
'060'
'Save'
'tam'
'Hand'
'Numero^_'
'Pw'
'APP^_'
'Whole^_'
'DOWNLOAD\u^_'
'jmh_'
'FROM_'
'Cell'
'ool_'
'ber_'
'ja'
'v8_'
'absent_'
'"∅∅∅∅^_'
'Execut'
'LOGIN_'
'720'
'Torrent^_'
'Medi'
'ORI'
'260^_'
'pv^_'
'Ana'
'4096_'
'Ak'
'Part'
'TG'
'mode'
'SETTING_'
'diff'
'490'
'Restriction^_'
'adv'
'Amb'
'aft_'
'\\"%^_'
'Representation^_'
'GP^_'
'Call'
'Corner_'
'ru^_'
'SWIG\u^_'
'RDD_'
'(?,^_'
'iteration_'
'published^_'
'rep'
'428'
'Mixin_'
'261'
'12.'
'adm'
'specification^_'
'Disa'
'2010^_'
'XS^_'
'Th'
'tokens^_'
'Walker_'
'id2_'
'sage'
'PC^_'
'Ll'
'"`^_'
'vc^_'
'primitives_'
'perun_'
'FM'
'Trie^_'
'Accuracy_'
'600'
'meth\u^_'
'OMS'
'Gh'
'skin^_'
'Ads^_'
'yc'
'sparql_'
'ity'
'shader_'
'chat\u^_'
'titles_'
'106_'
'Thr'
'CASE_'
'Research^_'
'Months_'
'BUTTON_'
'ium_'
'solo_'
'MW^_'
'GUI\u^_'
'pet^_'
'Life'
'fam'
'DIS'
'lia'
'A2_'
'323'
'Compatibility^_'
'BINARY_'
'Speech_'
'CURSOR_'
'earth'
'SHIFT_'
'kal'
'see'
'Truth_'
'Enchantment_'
'BRA'
'3000'
'ey'
'Trailing^_'
'BACKGROUND\u^_'
'A8'
'1.4'
'INDEX^_'
'016^_'
'Rule'
'REV'
'rame_'
'rse^_'
'pv_'
'124^_'
'Then_'
'Configs^_'
'ntra'
'NF^_'
'ifi'
'ming^_'
'IST'
'Value2_'
'425'
'FIRE'
'Chars^_'
'ndi'
'Forma'
'819'
'guest^_'
'Ns'
'bis'
'Getting^_'
'save'
'zw'
'descriptions_'
'isp'
'stat'
'jts_'
'AUDIO\u^_'
'yme'
'Lost^_'
'SAMPLE'
'Perform^_'
'managers_'
'localized^_'
'Validat'
'231'
'avg_'
'270'
'SMALL\u^_'
'Documented_'
'Pivot^_'
'Ctrl_'
'Sy'
'';"_'
'ow^_'
'HIT'
'SETTING\u^_'
'Pal'
'bab'
'Mis'
'INST'
'WR'
'427'
'0x10_'
'Layered^_'
'bitfield_'
'006'
'pol'
'cate'
'Count'
'deve'
'Bm'
'pixel'
'2014_'
'vie'
'MAPPER_'
'5\u_'
'nk^_'
'Friends^_'
'Demand^_'
'Compatible_'
'ISO\u^_'
'Examples_'
'Radio_'
'vol'
'zer^_'
'norm^_'
'ition^_'
'frequency^_'
'Rolling^_'
'tch'
'spa'
'Prod^_'
'Dismiss^_'
'liquibase_'
'Included^_'
'∅o^_'
'terminate^_'
'EXPECTATIONS_'
'clicked^_'
'fied^_'
']+)'
'201'
'sq_'
'Monster^_'
'right\u^_'
'Flo'
'Voucher^_'
'KT'
'Bonus_'
'0.001'
'roid_'
'ob\u^_'
'Messenger_'
'longitude^_'
'sed'
'Bla'
'tec_'
'rng_'
'238'
'Universal^_'
'toc'
'Jcr^_'
'.0f_'
'ard^_'
'IW^_'
'Issuer^_'
'hre'
'Hub_'
'SCRIPT\u^_'
'GH'
'estado^_'
'sep'
'Neighbors_'
'je^_'
'tta'
'erp_'
'SEP_'
'openm'
'abe'
'bda'
'Track'
'Presence^_'
'cattle_'
'COLLECTION\u^_'
'problems_'
'String\u^_'
'Occurrence^_'
'average_'
'Eli'
'exolab_'
'libs_'
'Dst^_'
'Hid'
'ata^_'
'lon'
'iate'
'protocols_'
'SCOPE\u^_'
'sion_'
'serial_'
'alg'
'354'
'BAR_'
'wiz'
'classname_'
'Kon'
'Paint'
'V1'
'REGION\u^_'
'languages_'
'exi'
'373'
'jta'
'Address'
'lag'
'norm_'
'until_'
'530'
'LO^_'
'se\u^_'
'heat'
'vet'
'sis'
'"∅∅∅^_'
'Assign_'
'unregister_'
'Firewall^_'
'340'
'Vp'
'DAYS_'
'Wei'
'Estimate_'
'paths^_'
'pg^_'
'digit_'
'newp'
'Pom_'
'qf'
'Vendor_'
'EI'
'joy'
'Comparable^_'
'Il'
'Instant^_'
'iri'
'Verb_'
'dns^_'
'Constraints'
'multipart^_'
'Navigator^_'
'crea'
'327'
'minutes^_'
'CW'
'901'
'MARK'
'wave'
'ves_'
'TYPE'
'328'
'program'
'dates_'
'nan'
'nop'
'documentation_'
'Systems_'
'YC'
'Nearest^_'
'pes'
'Vdc^_'
'Multicast^_'
'Method'
'mav_'
'lun'
'Caches_'
'1._'
'Compression_'
'Ea'
'hed'
'een'
'mime_'
'slide^_'
'Copies_'
'DELAY\u^_'
'Colo'
'SELF_'
'jse'
'su_'
'dark_'
'Mn'
'322'
'408'
'GT_'
'Enemy^_'
'vendor_'
'ervice_'
'Partitions^_'
'TILE\u^_'
'Beam^_'
'Can'
'Pic_'
'nex'
'HASH\u^_'
'SECOND^_'
'obj1_'
'M1'
'multipart_'
'rub'
'eba'
'809'
'YT'
'Production_'
'rho'
'Wake^_'
'NL'
'Fallback^_'
'column\u^_'
'Ran'
'tee'
'Polling^_'
'Codigo_'
'602'
'Number'
'Gamma^_'
'Four^_'
'wide'
'Analytics_'
'appi'
'262'
'ops^_'
'Envelope^_'
'specification_'
'Exif^_'
'jboss^_'
'azure^_'
'Bel'
'deps^_'
'PR^_'
'TV^_'
'P$parser$stack_'
'picker_'
'Vt'
'Correct'
'Termination^_'
'gz'
'fab_'
'uto'
'jac'
'sock_'
'htm^_'
'kb^_'
'zone'
'Exclude_'
'DES'
'237'
'province^_'
'ctrip_'
'Baseline^_'
'Guard^_'
'Repair^_'
'Mel'
'recursive^_'
'241'
'wc_'
'mult_'
'Bal'
'BOOLEAN\u^_'
'Label5_'
'compare'
'tan'
'Vers'
'Outline_'
'Every^_'
'11.'
'jarg'
'Err'
'mongo_'
'viewer^_'
'hu^_'
'English^_'
'Inco'
'Asn1^_'
'aff'
'Retrofit_'
'Formal^_'
'symbol'
'ott'
'orm'
'executable^_'
'IBM^_'
'dia_'
'SETTINGS\u^_'
'SEP'
'Policies^_'
'i4_'
'espertech_'
'oa_'
'314'
'WEEK_'
'wise^_'
'316'
'Rotate_'
'ille'
'960'
'depart'
'Pow'
'Hot'
'Milliseconds_'
'Chr'
'Tail^_'
'ev^_'
'Clickable_'
'Insert'
'429'
'bk'
'weight'
'pod^_'
'Rabbit^_'
'warnings_'
'292'
'names'
'his^_'
'YI'
'refine'
'dyna'
'conditional^_'
'Verb'
'Qua'
'resolution^_'
'Lat'
'KV^_'
'Both^_'
'161'
'PORT'
'ARD'
'Percentage^_'
'Fer'
'procedure_'
'index1_'
'160'
'datat'
'scale'
'x3'
'uan'
'url\u^_'
'finalize_'
'071'
'Sup'
'Interface'
'0026\u^_'
'accounts^_'
'Win_'
'Books_'
'EW'
'Lr'
'unl'
'399'
'fer_'
'Tv_'
'Seen_'
'Pulsar^_'
'Sharp^_'
'locali'
'jre'
'calendar'
'415'
'Sex_'
'strings^_'
'Producto_'
'Slow^_'
'Shipment^_'
'yml^_'
'received_'
'submission^_'
'Care^_'
'mk^_'
'exclude_'
'Vol'
'raf'
'ogi'
'carbon^_'
'REPORT'
''
'rans'
'Pn'
'BOX_'
'tbl_'
'SSL\u^_'
'Own_'
'filepath_'
'Logo_'
'shr'
'Combat^_'
'particle_'
'bold^_'
'good'
'SELECTED\u^_'
'160^_'
'serializer^_'
'apm_'
'ica^_'
'disable_'
'822'
'xsl^_'
'STRUCT_'
'Ball_'
'Gold^_'
'emo'
'224^_'
'ric'
'wf^_'
'Qi'
'32'
'007'
'trip^_'
'Sessions^_'
'Shi'
'174'
'ins'
'TAB'
'corp'
'walk_'
'coe'
'Gap^_'
'UNRELATED_'
'rk'
'pname_'
'Bases_'
'TRACK'
'Xc'
'UM_'
'verification^_'
'mber'
'TAL'
'sre'
'discount^_'
'Gui'
'560'
'ence^_'
'625'
'fund'
'Curr'
'AME'
'v6_'
'tos_'
'conversation_'
'255'
'CN^_'
'conversion_'
'Termination_'
'BASE'
'Rent'
'Np'
'Terrain_'
'IDE'
'anim'
'asakusafw_'
'PE^_'
'atl'
'graphic^_'
'exact^_'
'tage'
'vn_'
'RECT'
'bul'
'NUMBER^_'
'Drill^_'
'notif'
'LOCK'
'PATH^_'
'GAT'
'ria'
'Cant^_'
'turn_'
'liste'
'Bid_'
'old\u^_'
'ACTION^_'
'vg'
'show\u^_'
'Translate_'
'707'
'ipo'
'Enemy_'
'META^_'
'Construct^_'
'Inline_'
'Express^_'
'BOT'
'206'
'logo_'
'taglibs_'
'109_'
'372'
'rator_'
'718'
'Gram'
'cert'
'409'
'consulo_'
'121^_'
'full_'
'late'
'BIG\u^_'
'rl^_'
'(-^_'
'F0'
'orderstatus^_'
'replay^_'
'gravity_'
'Acct^_'
'Men'
'ENV'
'tol'
'>>^_'
'Diadoc_'
'Permit'
'Hm'
'Ph'
'Eviction^_'
'soy_'
'mina'
'E'
'BN'
'did'
'oot'
'Insertion^_'
'fastjson_'
'rk^_'
'getter^_'
'asc^_'
'Satisfied_'
'Neu'
'fxml^_'
'CONTROL_'
'Synthetic^_'
'Fingerprint_'
'models^_'
'Hours^_'
'Endian_'
'Vec2_'
'with'
'Assign'
'topic'
'powermock_'
'162'
'721'
'LET'
'MOD'
'Developer^_'
'sil'
'seen^_'
'shuffle_'
'research_'
'park'
'suppress^_'
'Micro'
'ush'
'0.001_'
'trx^_'
'the\u^_'
'Try_'
'Vec2'
'AUTHOR'
'(\\"'
'tut'
'ier'
'server\u^_'
'mart'
'jaspersoft_'
'til'
'documents^_'
'cmf_'
'YP'
'oasis^_'
'make'
'disconnect^_'
'cst'
'collision^_'
'Reflect^_'
'sip^_'
'peer'
'accel'
'DUMMY\u^_'
'native'
'visit'
'1100'
'TIMESTAMP\u^_'
'inst'
'Hero^_'
'resourcemanager_'
'Datanode^_'
'ped'
'FINISHED_'
'Lag'
'639'
'021^_'
'172'
'lad'
'Cpp^_'
'STATIC\u^_'
'sizes_'
'nick^_'
'Xt'
'keyboard_'
'mapred_'
'RETRY\u^_'
'305'
'Colour^_'
'sion'
'itt_'
'Subscriptions_'
'268'
'udi'
'Vor'
'pec'
'gz^_'
'Motor^_'
'>]'
'ud^_'
'multiplier_'
'this'
'Door^_'
'Bar\u^_'
'Conflict_'
'EN'
'Gn'
'pn^_'
'Small_'
'504'
'319'
'fox'
'ZIP'
'EU'
'bzl^_'
'iot_'
'.00'
'spar'
'matrix'
'subscriber^_'
'Vertical_'
'Barrier_'
'Synchronize'
'Twi'
'126_'
'Notice^_'
'Physics^_'
'Rod'
'435'
'ida'
'Episode^_'
'278'
'Mus'
'hints_'
'drop'
'uid'
'Checkbox^_'
'Area'
'Tw'
'A0'
'"==============^_'
'playlist^_'
'Writing^_'
'outs'
'card\u^_'
'JU'
'11\u^_'
'\\":[],^_'
'Configurer^_'
'Define_'
'tip_'
'MF^_'
'4c'
'container'
'duplicate_'
'ln^_'
'elapsed_'
'Filter'
'710'
'restore_'
'Sign'
'Validity_'
'course'
'880'
'258'
'fly'
'csi'
'219'
'dei'
'zor'
'trend'
'[{}]^_'
'Inc'
'ean_'
'269'
'esa'
'clustering_'
'Extract'
'enclosing^_'
'Push'
'gravitee_'
'dm^_'
'tie'
'*('
'726'
'lj'
'external'
'transcript'
'kas'
'Three_'
'SSO^_'
'CONFIRM'
'redirect_'
'Exceptions^_'
'ITI'
'IME'
'Implement'
'CONSTANT\u^_'
'bits'
'Pp'
'ged^_'
'math'
'List2_'
'bear'
'283'
'fish^_'
'Fully_'
'XSSF^_'
'TAT'
'Hash'
'233'
'anda'
'Sun^_'
'cia^_'
'Mission^_'
'772'
'mam'
'S3_'
'serialization^_'
'rto'
'Gravity^_'
'ULAR'
'HD^_'
'tempo'
'COP'
'checksum^_'
'dos'
'**^_'
'UK'
'pinot_'
'domains_'
'l3_'
'495'
'wallet^_'
'av_'
'CH^_'
'Decode_'
'Stone^_'
'boundary_'
'harness_'
'Y2_'
'NTI'
'study_'
'Aux_'
'156'
'google'
'154^_'
'lista'
'Frames^_'
'1010'
'tes_'
'pageable_'
'led'
'172^_'
'generation_'
'Bib^_'
'Jaxb^_'
'mq_'
'Com'
'={}"_'
'Pref'
'TICK'
'Subtree^_'
'UML^_'
'Lan'
'wan'
'Lead^_'
'Gecko^_'
'INI'
'eval\u^_'
'Prep'
'sets^_'
'Esp'
'117_'
'tel'
'Migration_'
'gml_'
'CLI^_'
'collapse^_'
'p4'
'kin'
'nam'
'eter'
'dirs_'
'double'
'Plug^_'
'345'
'tip^_'
'plane^_'
'157'
'mt^_'
'Granularity_'
'Coding_'
'subm'
'Probe_'
'amo'
'Selenium^_'
'NSI'
'107_'
'obe'
'Hosts^_'
'0x000000'
'reci'
'air^_'
'effects_'
'Tro'
'stm_'
'expiry^_'
'Replay^_'
'LEG'
'plural'
'Tank_'
'Enhanced^_'
'smooth'
'topo'
'unt_'
'plant'
'LV'
'Client'
'214'
'we_'
'eria'
'UTE'
'Presence_'
'Equipment_'
'Inactive^_'
'hur'
'0x100'
'Expiration_'
'Expect^_'
'placeholder_'
'tream_'
'ORIENTATION\u^_'
'pool'
'DOT_'
'Bgp^_'
'347'
'0x7f03000'
'540'
'mpa'
'METRIC\u^_'
'748'
'RADIUS_'
'Eng'
'capability_'
'Runs_'
'STATUS^_'
'SUCCESS\u^_'
'xcontent_'
'fatal_'
'prob_'
'sac'
'802'
'appender_'
'attribute'
'mage'
'asc_'
'Mul'
'Delivery_'
'magic'
'ment\u^_'
'321^_'
'Occur'
'Dfa'
'365'
'buffers_'
'JN'
'Warn^_'
'104^_'
'cus'
''\u^_'
'Unix^_'
'164'
'buck^_'
']:^_'
'akka_'
'Simulator^_'
'footer_'
'ect'
'Inference^_'
'CLOSED_'
'1e'
'cash^_'
'Sq'
'STANDARD\u^_'
'instrument'
'i'
'popular'
'eee'
'agents_'
'VARIABLE_'
'Nick_'
'Entry'
'srcs^_'
'operand'
'estimated^_'
'epi'
'Gem^_'
'CV'
'702'
'SUN'
'portfolio_'
'lob'
'dragon'
'GE\u^_'
'evi'
'omm'
'MEMBER\u^_'
'Alphabet_'
'alt2'
'URL'
'Stream'
'oup'
'bil'
'Depend'
'0001^_'
'Digit^_'
'sex'
'SA^_'
'DER^_'
'endpoints_'
'Shar'
'fill'
'exam_'
'SUPER'
'Prototype^_'
'376'
'cached_'
'Disc'
'Endpoints^_'
'235'
'INSERT_'
'sw^_'
'WARNING^_'
'EQ'
'ku^_'
'TS\u^_'
'swing^_'
'LANG\u^_'
'Any'
'slider^_'
'img\u^_'
'dubbo_'
'qb_'
'tect'
'Ground_'
'Eye^_'
'Accessors^_'
'Rede'
'P4^_'
'merchant^_'
'azi'
'...'
'Portable^_'
'Paper^_'
'ud_'
'221'
'MASTER\u^_'
'strata_'
'Stre'
'v1beta'
'som'
'236'
'Servers^_'
'223'
'Quaternion_'
'125^_'
'Skills_'
'measure'
'immutable^_'
'hours^_'
'flash_'
'counter'
'WX^_'
'MUL'
'rete'
'PV'
'habit'
'Serial_'
'RA^_'
'contracts_'
'ist'
'exo'
'force'
'Multiple_'
'F8^_'
'Dv'
'524'
'expired^_'
'Wall'
'saml^_'
'namespaces_'
'jcas^_'
'Returns_'
'easymock_'
'req'
'nick_'
'rum'
'CV^_'
'test2_'
'0.15'
'crypto^_'
'250^_'
'TEMP\u^_'
'=[^_'
'db\u^_'
'Mit'
'1497'
'decrypt_'
'ood'
'Updating^_'
'Fuel^_'
'ume'
'soc'
'javac'
'{!^_'
'315'
'Bul'
'rf^_'
'phase'
'rank'
'DOUBLE^_'
'Nf'
'atomic^_'
'panel'
'/*"_'
'Challenge^_'
'ett'
'REQ\u^_'
'JL'
'id\u_'
'ARE'
'yst'
'tore'
'Tho'
'709'
'PROGRESS_'
'connection'
'Foundry^_'
'rch'
'bomb'
'Hop^_'
'154'
'ect^_'
'Rights_'
'Mail'
'183'
'ous'
'moment'
'curve_'
'zb'
'Exporter^_'
'Wand'
'Ln'
'Areas_'
'validator^_'
'autor'
'FOR^_'
'z1_'
'addr'
'reports^_'
'obiba_'
'Roll'
'%%'
'ang^_'
'NA_'
'Reservation_'
'square_'
'TZ'
'Ch'
'encia'
'qe'
'r2'
'poly_'
'serve'
'Ym'
'DEC^_'
'parsing_'
'queue'
'jax'
'714'
'ght^_'
'rich'
'Parcel^_'
'plat'
'armor^_'
'HW'
'Saver_'
'Mind^_'
'Repeat'
'GE^_'
'LEA'
'Ye'
'"/**"_'
'medi'
'executed^_'
'Sampler_'
'flip^_'
'423'
'optionals_'
'asp'
'Explorer_'
'259'
'sap'
'index\u^_'
'153_'
'RATE\u^_'
'spl'
'caught_'
'javac_'
'ITEMS_'
'applib_'
'Rei'
'LS^_'
'purge^_'
'RATION'
'"*'
'nfe_'
'movies_'
'combo_'
'USE^_'
'deep'
'SEQ'
'bag'
'alize'
'Thrown_'
'Beta_'
'Chat'
'Ub'
'reflection_'
'tica'
'reasoner_'
'Indexed_'
'tu_'
'reme'
'FRE'
'Dp'
'q1_'
'bst'
'Intersection_'
'hora'
'715'
'765'
'nexus_'
'Att^_'
'webservice_'
'wv'
'daemon_'
'};^_'
'mari'
'sound'
'snap^_'
'dur'
'Enter'
'ops'
'has\u^_'
'aka'
'XR'
'moves_'
'13.'
'Bullet^_'
'gk'
'wind'
'chat'
'dli'
'Byte'
'769'
'Unmodifiable^_'
'Spi'
'Tax_'
'Widgets_'
'Birth^_'
'eg_'
'hex'
'Queries^_'
'TWO_'
'Legend_'
'Bolt_'
'det'
'visited^_'
'testsuite_'
'Skipped^_'
'paint'
'Xml'
'lut'
'locations^_'
'Estimated^_'
'Se'
'040'
'M3'
'Show'
'Trim^_'
'282'
'646'
'Special_'
'Expire^_'
'005'
'ire_'
'olingo_'
'HORIZONTAL\u^_'
'Modifiable^_'
'.\u^_'
'also^_'
'items'
'tric'
'Jet^_'
'Product\u^_'
'Flatten'
'Apk^_'
'146^_'
'Discount_'
'subse'
'cmp^_'
'boy'
'Dash^_'
'mandatory^_'
'Tx'
'affected^_'
'Occurrence_'
'Lp'
'datab'
'192_'
'bia'
'examples^_'
'configurations_'
'Kar'
'Bas'
'289'
'216'
'meal'
'hot^_'
'mv^_'
'Voi'
'Heart^_'
'C3'
'OLE'
'peak^_'
'fi^_'
'e4_'
'ALWAYS_'
'rib'
'Affinity^_'
'NX'
'Tune'
'ids'
'count\u^_'
'768'
'rdb'
'MATCH^_'
'DOCUMENT_'
'eno'
'joining_'
'SECTION\u^_'
'magic^_'
''&'_'
'Adjustment^_'
'jee'
'gir'
'Support'
'113_'
'conflict'
'CONFIG'
'747'
'0.04'
'121_'
'stride_'
'RECO'
'Activate^_'
'obs'
'glide_'
'dz_'
'506'
'logo'
'toggle_'
'dock'
'Point3^_'
'param1_'
'virtual'
'height'
'ated^_'
'Int32^_'
'STORAGE_'
'Ride'
'Inv_'
'777'
'FAILED^_'
'ec2_'
'writable^_'
'Mont'
'UM^_'
'POWER\u^_'
'YOU'
'CONF'
'nia'
'filtered_'
'Savings^_'
'Pes'
'oid'
'contacts^_'
'UNKNOWN^_'
'Feature'
't'
''{}'^_'
'EDIT'
'nci'
'Ci^_'
'Cancelled^_'
'clouds'
'Timing^_'
'730'
'zip'
'MASK\u^_'
'includes_'
'jes'
'Commons^_'
'Cent'
'recover^_'
'vir'
'ther'
'155'
'measurement^_'
'EXECUTE'
'fia'
'oad'
'tail'
'gps^_'
'MODEL'
'ICE'
'1l_'
'Codigo^_'
'COS'
'://'
'Scm^_'
'883'
'interaction^_'
'Inspector^_'
'bbb^_'
'PERM'
'graalvm_'
'358'
'vehicle_'
'Reaction^_'
'N1'
'Closest^_'
'conve'
'kos'
'LM'
'Gray_'
'499'
'acquire_'
'Codes^_'
'DIRECTORY\u^_'
'LAT'
'dom'
'):"_'
'gist'
'Jw'
'summ'
'431'
'COMM'
'ux^_'
'Mp^_'
'QUESTION\u^_'
'II^_'
'537'
'cine'
'Shaped^_'
'F4'
'Fold'
'neighbors_'
'COMPOSITE_'
'NER'
'IMPL'
'slo'
'Hr'
'ske'
'Day'
'n1'
'determin'
'Listeners^_'
'Trial^_'
'ular^_'
'Iv'
'Ancestor^_'
'inet^_'
'Bloom^_'
'kryo_'
'∅l'
'abort_'
'adj^_'
'ping'
'220_'
'Selectable^_'
'Bundle'
'AN\u^_'
'LAR'
'Iz'
'timezone_'
'202^_'
'hone'
'}\\"'
'[{}]"_'
'EAR'
'checks_'
'UNT'
'122_'
'dang'
'acion_'
'battle'
'Rain'
'matic'
'Workers_'
'wait'
'Encounter^_'
'smt'
'quit^_'
'gue'
'follow'
'osm'
'\\\\\\"'
'spotify_'
'mang'
'Tez^_'
'Aq'
'voice^_'
'Nothing_'
'Classic^_'
'TOPIC\u^_'
' '
'284'
'CARD\u^_'
'ton'
'PUBLIC\u^_'
'man'
'ini^_'
'limit'
'764'
'dotmarketing_'
'ari^_'
'jtf^_'
'364'
'Kinds_'
'ARGUMENT_'
'"}^_'
'Te^_'
'faction'
'Games_'
'compar'
'Rob'
'tz^_'
'gene_'
'opensaml_'
'Sw'
'pb^_'
'"{\\^_'
'738'
'604'
'dark^_'
'classification^_'
'Ble^_'
'consulta'
'"{}"_'
'orb'
'owned^_'
'AIR_'
'pti'
'3b'
'DST'
'address'
'Returned^_'
''>'_'
'Correction^_'
'Error'
'mutable^_'
'FORE'
'beg'
'qb'
'ista'
'719'
'CONTINUE_'
''?'_'
'Tl'
'eas'
'Qui'
'smart^_'
'nge_'
'bind'
'JS_'
'013'
'695'
'logical_'
'INT'
'er2_'
'file1_'
'b2'
''>^_'
'Fac'
'PLUS_'
'OUT^_'
'ENS'
'Registrar_'
'estado_'
'{'^_'
'"}'
'Rewrite_'
'Saved_'
'Sets000_'
'090'
'338'
'J\u^_'
'Tit'
'MID'
'Yield^_'
'maxim'
'903'
'0000000'
'Customizer_'
'rad_'
'pipe^_'
'blade'
'Merger_'
'painter_'
'Needs^_'
'npc^_'
'URA'
'Corpus^_'
'tou'
'Cat'
'perf'
'api\u^_'
'Harness_'
'),\\^_'
'vh'
'']/^_'
'Sing'
'param\u^_'
'ova'
'linecorp_'
'Propagation^_'
'SM\u^_'
'mr^_'
'Bpmn^_'
'like_'
'their^_'
'analyzer^_'
'Grid'
'CH\u^_'
'44'
''],"_'
'Ancestor_'
'Thread'
'Configured_'
'label1'
'OF_'
'esd'
'DIST'
'Profiler_'
'Modify_'
'Cle'
'index2_'
'XMPP^_'
'hx'
'affi'
'personal^_'
'xiao'
'ups'
'glo'
'IMPORT\u^_'
'rev_'
'Claims_'
'"|'
'gmail^_'
'Spell'
'Spin'
'indexer_'
'SI^_'
'Fis'
'char\u^_'
'Ty'
'Enc'
'grab'
'WIDTH\u^_'
'Inverse_'
'Page\u^_'
'PARAMETERS_'
'Steps^_'
'v4'
'moss'
'434'
'precision^_'
'ght_'
'activation_'
'ELEMENT'
'odcgroup_'
'sal^_'
'ffe'
'CAMERA\u^_'
'VIS'
'ain'
'ERI'
'taglib_'
'soot_'
'ence'
'SPO'
'gallery^_'
'Submission_'
'PUR'
'rq'
'Curator^_'
'espresso_'
'0x7f0500'
'locked_'
'NET\u^_'
'nea'
'Player'
'rame'
'eds'
'FONT_'
'gef_'
'cordova_'
'170_'
'd4_'
'snow'
'Intercept^_'
'ione'
'lan_'
'gwt'
'Firefox^_'
'eo_'
'WITH'
'URE\u^_'
'tem'
'727'
'prod_'
'nin'
'either^_'
'1111'
'Del'
'miss'
'Fleet^_'
'DIFF'
'Osm^_'
'NEWLINE_'
'Fail'
'anon'
'xv'
'python^_'
'Sel^_'
'Ava'
'ONLY\u^_'
'279'
'layer'
'CONTACT\u^_'
'Temp'
'need'
'sigma_'
'99'
'pid'
'cycle_'
'oa^_'
'Exception'
'inject'
'306'
'eid'
'INNER^_'
'Sig_'
'L20_'
'CONNECTED_'
'FREE'
'10.'
'izer_'
'remark_'
'detail\u^_'
'ents_'
'settings\u^_'
'openflow_'
'gmf_'
'form\u^_'
'666'
'aggregations_'
'species^_'
'unitime_'
'Change'
'fxml_'
'unsigned^_'
'Passed_'
'opa'
'menta'
'ALIAS\u^_'
'6000'
'linalg_'
'PRED'
'Contract'
'Deck^_'
'Enchant'
'Analyzes^_'
'verbose^_'
'password'
'implicit^_'
'Opacity_'
'kam'
'SAND'
'rewrite^_'
'cour'
'ree'
'AH'
'TIN'
'executing^_'
'Bun'
'820'
'472'
'terminat'
'MENT'
'val1_'
'tweet_'
'Rq'
'pas'
')|'
'Jetty^_'
'found'
'arity_'
'osa'
'settle'
'CP_'
'371'
'aes'
'Move'
'ada_'
'Stri'
'public'
'"../^_'
'well^_'
'erb'
'XSD^_'
'Tie'
'ratio^_'
'Slash_'
'zil'
'368'
'AN'
'pic'
'nai'
'cut'
'audit'
'gh_'
'eat'
'Vs^_'
'RO^_'
'kfs_'
'whi'
'Pure^_'
'COMPLEX\u^_'
'Request'
'Panels_'
'irc'
'Authenticated_'
'ight_'
'BITS_'
'spout'
'zhu'
'weighty_'
'nge'
'entry'
'Perm^_'
'warehouse_'
'Elect'
'cca'
'Probability^_'
')('
'compress^_'
'850'
'mini^_'
'dos^_'
'flight^_'
'Proc'
'Grouped^_'
'Periodic^_'
'Her'
'vt_'
'Jc'
'Rigid^_'
'doct'
'Spell_'
'orient'
't∅'
'Ch^_'
'VERBOSE_'
'Sites_'
'Calculate^_'
'UDP^_'
'nen'
'tics_'
'Journal_'
'Inflate'
'digital'
'Applicable^_'
'uct'
'Dash'
'owlapi_'
'METADATA_'
'Tf'
'ish^_'
'+('
'JM'
'noo'
'5.0'
'DROP\u^_'
'special'
'Reject^_'
'mars'
'ict'
'Spoo'
'NPC_'
'ACCOUNT_'
'FACT'
'Cards^_'
'Pk'
'lol'
'dbc'
'ord^_'
'tmp\u^_'
'VER\u^_'
'Question'
'837'
'"&#^_'
'roll'
'Calcite^_'
'Str'
'297'
'STATE^_'
'Prime_'
'Da^_'
'Bundles_'
'god'
'coordinate^_'
'metastore_'
'www_'
'groovy^_'
'INVOKE'
'dor'
'Biome_'
'EA^_'
'DESCRIPTION\u^_'
'NN^_'
'BI^_'
'joe'
'dpi'
'339'
'SUPPORTED\u^_'
'Plant^_'
'OTHER\u^_'
'636'
'Prime^_'
'xhtml^_'
'trap'
'progress'
'department_'
'Arr'
'/*'
'allocator_'
'NIL_'
'CHAR^_'
'stubs_'
'mys'
'Hero_'
'Snippet^_'
'voice_'
'.)'
'angle'
'Unauthorized^_'
'DK'
'tell'
'CARET\u\u\u\u\u\uCA'
'community^_'
'certificate_'
'Rfc'
'rad'
'Vtn^_'
'eg'
'pli'
'TMP'
'nav\u^_'
'ENCODE'
'ket'
'i4'
'Rect'
'profiler_'
'adj'
'shader^_'
'umd_'
'weba'
'aso'
'ecl'
'CARD'
'recording^_'
'543'
'fab'
'accum'
'kb_'
'017^_'
'298'
'192'
'recipes_'
'257'
'decimal_'
'expires^_'
'ARA'
'rech'
'Encryption_'
'075'
'NEG'
'359'
'dream'
'CHARS_'
'Bind'
'oracle^_'
'authorize^_'
'\u\u"_'
'Standalone^_'
'tet'
'Problems_'
'E3'
'Undefined^_'
'Hold^_'
'COMPLETED_'
'Txn_'
'Cb'
'opc'
'hang'
'Tint^_'
'Strip^_'
'EXP'
'Vocabulary_'
'ppl'
'EJ'
'ool'
'Ibor^_'
'drive_'
'"=^_'
'dismiss^_'
'scape'
'medium^_'
'dbl'
'jna_'
'panels_'
'Cx'
'hell'
'esb_'
'nto^_'
'keyspace_'
'Optimization^_'
'Jenkins^_'
'automation_'
'apimgt_'
'quer'
'mass'
'them'
'closest^_'
'IGNORE\u^_'
'op\u^_'
'number\u^_'
'invite'
'CROSS'
'uy'
'geowave_'
'eye_'
'Hibernate_'
'thi'
'Datasource_'
'neu'
'IMA'
'microedition_'
'vit'
'PLACE'
'UTIL_'
'ang_'
'REMOVE_'
'ador_'
'ACL_'
'Local'
'TH_'
'Lv'
'alla'
'Lens^_'
'Ask^_'
'david'
'fleet'
'decrement^_'
'completion_'
'PUSH_'
'Loop'
'Modal_'
'GOLD_'
'community_'
'CLEAN'
'hook^_'
'324'
'"{}^_'
'gap^_'
'A7'
'constraints^_'
'Translator^_'
'Analyze^_'
'upt'
'IA^_'
'367'
'DOT'
'CID'
'Resolve_'
'pou'
'enemy_'
'hes'
'gl\u^_'
'403_'
'Transit^_'
'728'
'Award^_'
'Creature_'
'902'
'siddhi_'
'Cha'
'(?:'
'JX^_'
'10L_'
'hz'
'V4^_'
'terminate_'
'Watcher^_'
'Sim_'
'Leading^_'
'failures_'
'SP\u^_'
'IRE'
'aionemu_'
'Dashboard_'
'Kick'
'm'
'.</^_'
'cassandra^_'
'Colors^_'
'ife'
'ais'
'aq'
'Datos_'
'Offer'
'Bot'
'battery^_'
'cts_'
'Ps_'
'stage'
'developerstudio_'
'Hooks_'
'DMN^_'
'')'
'Lon^_'
'timed^_'
'tus'
'fee_'
'ction^_'
'jndi^_'
'codes'
'FHIR^_'
'comb'
'Ser'
'BOTTOM\u^_'
'Td'
'Questions_'
'intern_'
'AF^_'
'Queues_'
'ener'
'Rb'
'Filtering^_'
'DEV'
'TRACE\u^_'
'pet_'
'cpu'
'Hg^_'
'ony'
'axe'
'Phase'
'Flowable^_'
'Wal'
'caret_'
'jdom_'
'743'
'Locat'
'Binder^_'
'sq^_'
'Fin^_'
'args'
'POS^_'
'textures^_'
'checkbox^_'
'imi'
'250'
'"!^_'
'wis'
'wind^_'
'dependent^_'
'IVE\u^_'
'Saving^_'
'reflect'
'smile'
'city'
'Strong^_'
'Deserialize_'
'DNS^_'
'liu'
'boofcv_'
'Major_'
'Diagnostic_'
'461'
'session'
'jon'
'kun'
'speed'
'Overrides_'
'Disconnect^_'
'RH'
'implement'
'lifecycle^_'
'pull'
'Far_'
'multi_'
'Goods_'
'ike'
'due'
'Promotion^_'
'Parquet^_'
'0x00000'
'lace'
'gax_'
'uh'
'filters^_'
'sns_'
'WD'
'Miner'
'integration^_'
'Jun'
'dbs'
'firm'
'chip'
'callable^_'
'888'
'ake'
'lst'
'Mut'
'Elm'
'transformation^_'
'Latency^_'
'ya^_'
'803'
'sou'
'MAL'
'caption^_'
'KU'
'TRACE_'
'addition\u^_'
'WITHOUT\u^_'
'Notation^_'
'Evaluate^_'
'als^_'
'Edges^_'
'temperature^_'
'exception'
'CQ_'
'eps_'
'fl^_'
'770'
'thr'
'Localization^_'
'READ'
'par2^_'
'indexing_'
'Fill'
'coding_'
'who^_'
'authorized^_'
'BS^_'
'061'
'oom'
'294'
'VE^_'
'enz'
'erna'
'shadow_'
'third'
'ray^_'
'Invite^_'
'Cont'
'people_'
'hun'
'ALIAS_'
'committe'
'gxt_'
'Jam'
'mon'
'Quoted^_'
'654'
'relations_'
'Foc^_'
'phrase^_'
'Dea'
'answers_'
'Packages^_'
'Dup'
'382'
'shift'
'Escape'
'lement'
'charge'
'REPEAT'
'chapter'
'471'
'structure'
'ource'
'PAD'
'jy'
'report'
'Opaque^_'
'Last'
'probe^_'
'using_'
'dirty^_'
'sup'
'colour_'
'SSI'
'nx'
'Noise^_'
'gene'
'Equip'
'Eq^_'
'ole'
'293'
'pala'
'Backed^_'
'rename_'
'moon'
'origin'
'windows_'
'ski'
'TH'
'pivotal_'
''."_'
'ROUND\u^_'
'location'
'Assumption'
'FX'
'keyboard^_'
'bm^_'
'WORK\u^_'
'pse'
'acro'
'EY'
'comparison^_'
'aspect_'
'interaction_'
'vra'
'Visit'
'Alg^_'
'section'
'copied^_'
'Reflective^_'
'util'
'Dep_'
'Mob_'
'0\u_'
'synpred'
'VAR_'
'Caption^_'
'fal'
'jsi'
'tier^_'
'Amino^_'
'0x7f08000'
'PREV'
'lease^_'
'apps'
'Ear'
'asu'
'bid'
'appl'
'(`^_'
'Shot^_'
'737'
'tho'
'Receipt_'
'pressed_'
'conflict^_'
'EFFECT'
'KEEP\u^_'
'DOWNLOAD'
'String2_'
'ya_'
'forum^_'
'rne'
'Tube^_'
'MANAGER\u^_'
'EXTENSION\u^_'
'yk'
'nne'
'intermediate^_'
'friend'
'VERSION^_'
'Barcode^_'
'454'
'"∅∅∅'
'Pk_'
'Note'
'produce^_'
'Reference'
'Queue'
'setter^_'
'cart_'
'Token'
'Recom'
'2.0F_'
'tun'
'than'
'alle'
'Years_'
'tcc'
'xq'
'field1'
'pep'
'machine'
'dss_'
'EXACT'
'ENDIAN_'
'TAG'
'mst'
'Continu'
'Crea'
'Insight^_'
'Give'
'Alluxio^_'
'todo'
'CBC^_'
'invoke'
'ji_'
'30\u^_'
'WALL'
'286'
'0x7f06000'
'Store'
'767'
'optaplanner_'
'Guild_'
'ONT'
'GF'
'Fragment'
'uli'
'mipmap_'
'disk_'
'INCREMENT'
'UTIL'
'OC^_'
'Dec_'
'TF^_'
'385'
'heart'
'tog'
'Agents_'
'viewport_'
'raph'
'obj2_'
'apr'
'MM_'
'ig^_'
'Installation^_'
'haulmont_'
'ngo'
'deps_'
'training_'
'Agreement^_'
'div'
'Confirm_'
'637'
'base64^_'
'[\u\u\uCARET\u\u\u'
'Nickname_'
'Broad'
'rot_'
'react_'
'RNA'
'Cand'
'GT^_'
'Supports^_'
'IMG\u^_'
'756'
'substring^_'
'TION'
'iat'
'MAG'
'scm_'
'w2_'
'atlas_'
'ini_'
'RIGHT^_'
'TP^_'
'slick_'
'validators_'
'asd'
'Nano^_'
'classifier^_'
'basic'
'hra'
'flower'
'TFC^_'
'Import'
'earch_'
'LOWER'
'percentage_'
'COLLECT'
'vision_'
'yon'
'620'
'cur\u^_'
'TED_'
'Simple'
'Enco'
'miner'
'\\"/>"_'
'Test\u^_'
'bou'
'Eq_'
'posi'
'Ace'
'tid'
'CONNECT\u^_'
'!!"_'
'\u\uCARET\u\u\u\u\u'
'leo'
'computer^_'
'PLU'
'return\u^_'
'Datastore_'
'416'
'cir'
'318'
'Replace'
'e0'
'numero_'
'SS_'
'ALLOWED_'
'ats_'
'723'
'navigation_'
'GREATER\u^_'
'ascii'
'Occ'
'tar_'
'issues^_'
'pred'
'ect_'
'turn'
'Tri^_'
'Asserts_'
'Df'
'Sasl^_'
'Metal^_'
'emb'
'383'
'easy_'
'w1_'
'Http2^_'
'du_'
'academic_'
'alignment^_'
'QR^_'
'udp^_'
'Aux^_'
'Reference\u^_'
'DISC'
'Perspective^_'
'zookeeper^_'
'469'
'LANGUAGE_'
'signal'
'Excluded^_'
'Bz^_'
'SUPPORTED_'
'Latency_'
'stop'
'REG\u^_'
'Command'
'dispose^_'
'264'
'authority^_'
'products^_'
'hierarchy_'
'455'
'Compa'
'ACE'
'Node1_'
'upl'
'Fork^_'
'Collect'
'they^_'
'EXPRESSION\u^_'
'uca'
'arrays_'
'557'
'Ctx^_'
'range'
'COL_'
'Mos'
'elexis_'
'dian'
'Occurs_'
'ump'
'val2_'
'scra'
'EDGE\u^_'
'teri'
'Lap'
'ingo'
'Subtitle_'
'ua^_'
'Transactions^_'
'Door_'
'Declare'
'Art^_'
'407'
'Deco'
'Initialized^_'
'ADA'
'?:'
'SETT'
'Rot'
'workcraft_'
'Maintain'
'prod'
'KN'
'INIT_'
'Apr'
'295'
'Peg'
'Enforce'
'offset'
'gr^_'
'Clean'
'nth'
'erf'
'edia'
'Lib'
'Rel'
'trait^_'
'header'
'mbi'
'QU'
'Intensity_'
'164^_'
'neighbor^_'
'hri'
'Consumed_'
'Affect'
'market'
'Jsoup_'
'$s'
'grow^_'
'Mb'
'derby^_'
'232'
'Iterators_'
'EXT\u^_'
'920'
'output\u^_'
'lev'
'assertion^_'
'transformer^_'
'Gal'
'street_'
'033^_'
'i3'
'ORA'
'LAB'
',%^_'
'rendering_'
'construct_'
'Friendly^_'
'silver'
'have'
'minimum_'
'broadcast_'
'What^_'
'oin'
'mim'
'hello_'
'Sen'
'tell_'
'Uses^_'
'Expecting^_'
'arm_'
'varia'
'esu'
'[\\^_'
'cnt^_'
'Al^_'
'567'
'gw'
'compose_'
'WAL^_'
'isc'
'erp'
'TER_'
'ATE'
'jf_'
'640'
'RESET_'
'GUID_'
'Reverse_'
'NOT_'
'statement'
'291'
'ars'
'752'
'Selecti'
'qualifier^_'
'outcome_'
'erg'
'boolean'
'700_'
'VIEW^_'
'Camp'
'Oo'
'jcl'
'example'
'Kl'
'reason'
'Cfg^_'
'CSS_'
'BPM'
'"')'
'UID^_'
'615'
'Script'
'dynamo'
'Cover_'
'BEAN\u^_'
'048'
'Allocated^_'
'dynamic_'
'Flag'
'AD_'
'gj'
'gne'
'views^_'
'Watch'
'ule'
'late^_'
'gor'
'Matrix3'
'Ua'
'Bol'
'PIXEL'
'SON'
'Fund'
'Opening^_'
'Sid_'
'Displayed^_'
'Avg_'
'Ing'
'newdawn_'
'Restart_'
'webf'
'sr^_'
'ource_'
'able\u^_'
'bound'
'Retrieval^_'
'Ball^_'
'UND'
'MAV'
'Critical^_'
'was'
'fg^_'
'enforce^_'
'NOT'
'xpr'
'Array1'
'Tac'
'Rates_'
'ick'
'cancelled_'
'FINAL_'
'Applications_'
'761'
'frag_'
'EH'
'Checkout^_'
'bob^_'
'univ'
'AUTH'
'bson_'
'Budget_'
'Interactive^_'
'item1_'
'crs_'
'|\\^_'
'Dependent_'
'stopped^_'
'mes^_'
'697'
'jda_'
'Wh'
'Storm^_'
'PREF'
'DY'
'  "_'
'PID_'
'holder^_'
'dyn'
'Gosu^_'
'Recipients_'
'explorer_'
'clean'
'amp'
'tower'
'dsp'
'monitoring^_'
'Monitored^_'
'MAP'
'ight^_'
'glassfish_'
'Dom_'
'YST'
'Interceptors_'
'Vb'
'cke'
'figure_'
'hua'
'peak'
'Config'
'tolerance_'
'other\u^_'
'433'
'Jb'
'intersects_'
'song'
'1000.0_'
'whole^_'
'ior^_'
'hardware^_'
'Dn'
'Protocols_'
'Role'
'Deactivate'
'MARGIN_'
'moz'
'ation'
'STER'
'561'
'omo'
'MEDIUM_'
'TV'
'Shapes_'
'instrument^_'
'Mr'
'611'
'terasology_'
'EST_'
'historic^_'
'1500'
'..'
'gua'
'Sou'
'PLAIN\u^_'
'QA'
'Datetime_'
'FAMILY_'
'inbound^_'
'Ni^_'
'brand^_'
'gradient^_'
'Round'
'devo'
'Fire_'
'P2'
'works^_'
'help'
'Portal_'
'Erro^_'
'gel'
'prev'
'Util'
'Content'
'shop'
'Unp'
'PERSON'
'ures_'
'VERT'
'javatronic_'
'Builder'
'FR^_'
'strand'
'Spot'
'Sharing^_'
'Dual^_'
'16\u^_'
'llo'
'Uniform'
'Iv^_'
'slow^_'
'database'
'Encrypt^_'
'ABS'
'gst'
'take'
'TABLES'
'function\u^_'
'JSP'
'CAPACITY_'
'100L_'
'Bri'
'DRAG'
'ult_'
'Limiter_'
'jabref_'
'capital'
'snap_'
'ML_'
'2048_'
'biz^_'
'highlight_'
'sed_'
'ecore^_'
'ido'
'Episode_'
'War^_'
'605'
'applet'
'Squared_'
'LAUNCH'
'MEM'
'Ver^_'
'comm^_'
'SYMBOL_'
'--'
'attacker_'
'combo'
'Suggest^_'
'XO'
'Subset_'
'Warp^_'
'Throwables_'
'Synchronized^_'
'length'
'estimate^_'
'ENTRY_'
'=="_'
'nage'
'Plane^_'
'INFORMATION\u^_'
'tipo'
'Persona_'
'Idea^_'
'Han'
'FILES_'
'Violations_'
'EDIT_'
'lus_'
'graphics^_'
'source\u^_'
'Movies^_'
'c0_'
'ios^_'
'Birth_'
'470'
'ROUTE'
'nee'
'guice_'
'Persist'
'Layout\u^_'
'HANDLER\u^_'
'airlift_'
'Din'
'fruit'
'Ks'
'Inst'
'gun'
'Pb'
']|'
'Value1_'
'SWI'
'cano'
'every'
'Limited^_'
'419'
'CHILD\u^_'
'gnu'
'Normalizer_'
'Air_'
'tal^_'
'emp_'
'X1'
'EL\u^_'
'a3'
'Stored_'
'var12_'
'SECOND\u^_'
'anonymous^_'
'room'
'dnd_'
'nav_'
'Finalize'
')\\"'
'SLI'
'14.'
'runelite_'
'Translated^_'
'ndo'
'tel_'
'ormat'
'igu'
'fact'
'Favorite_'
'mix^_'
'before'
'Planet_'
'MO_'
'nfo_'
'sol_'
'Pers'
'Nic'
'BY'
'hierarchy^_'
'Suc'
'045'
'rci'
'scl'
'Optimizer_'
'aram'
'SPAR'
'KS'
'222'
'gray_'
'ERE'
'Neighbour'
'())'
'surf'
'Dist'
'AR\u^_'
'wave^_'
'Pic'
'desk'
'DI^_'
'village'
'Json'
'decrypt^_'
'Resolved_'
'Increment'
'raster_'
'hd_'
'012^_'
'\\"}'
'RY\u^_'
'ERS_'
'Milli_'
'OPERATION'
'ELI'
'policies_'
'lom'
'AUTHORITY_'
'Paste^_'
'RE_'
'Sea'
'TV_'
'tweet^_'
'ARGUMENT\u^_'
'Anti'
'Chance_'
'TIMES'
'nno'
'Iron^_'
'cum'
'tla'
'feedback_'
'263'
'T3'
'esh'
'341'
'cloned^_'
'0l_'
'Bill'
'ging_'
'activity'
'Genre_'
'tle'
'orte'
'Panel3_'
'AP_'
'SB^_'
'stroom_'
'Jan'
'abr'
'Nom'
'dirty_'
'tils_'
'aspose_'
'GRID\u^_'
'updating^_'
'mybatis_'
'Blocked^_'
'dv_'
'sid'
'Samples^_'
'Mutator_'
'navi'
'Cri'
'532'
'degree^_'
'references^_'
'515'
'005fnobody_'
'Race^_'
'neg^_'
'349'
'VN'
'OT^_'
'join'
'Mock'
'Zones_'
'Targets^_'
'Consume^_'
'395'
'708'
'mq^_'
'devices^_'
'rno'
'collide'
'lle'
'Caret_'
'AVAILABLE_'
'445'
'population^_'
'Ven'
'SESSION_'
'fil'
'epo'
'Identifiable_'
'ncia'
'2006^_'
'q1'
'0x7f04000'
'user2_'
'Bg'
'radi'
'Verifier^_'
'detached^_'
'jit'
'BREAK'
'yer_'
'Depart'
'*=^_'
'Debugger_'
'Spans_'
'Duplicates_'
'blu'
'THE\u^_'
'Coord'
'sl^_'
'stamp_'
'mont'
'PLAY'
'tek'
'synonyms^_'
'tter'
'sent_'
'fm^_'
'Collision_'
'byte\u^_'
'eventbus_'
'393'
'mass_'
'Dept^_'
'prism_'
'nonce_'
'Xb'
'tud'
'itr'
'Se^_'
'Share'
'harmony_'
'cta'
'005f1'
'elli'
'profile\u^_'
'cred'
'them^_'
'Divider_'
'Succeeded_'
'Enums_'
'MOUSE\u^_'
'COORD'
'AY_'
'Ein'
'zf'
'plo'
'Market_'
'cases_'
'MO^_'
'clause^_'
'TREE\u^_'
'118_'
'nte'
'Bor'
'clz_'
'Prov'
'And'
'417'
'affect'
'FA^_'
'seg'
'jws_'
'mek'
'REFERENCE'
'Nat^_'
'Ended_'
'ari_'
'126^_'
'night'
'Searchable^_'
'house_'
'reference'
'019'
'Hall'
'3600_'
'cov'
'COLLECTION_'
'occured^_'
'events'
'PRIMARY\u^_'
'481'
'Sz'
'lot_'
'xla_'
'jwt^_'
'scene'
'Kerberos^_'
'eta_'
'442'
'gis_'
'grade_'
'GAL'
'sala'
'gb^_'
'oso'
'BLA'
'Reminder^_'
'JID_'
'Curly^_'
'Slide_'
'Phone'
'Validity^_'
'B1'
'Sensitive^_'
'Svn^_'
'&#^_'
'indicator^_'
'Ca^_'
'Refreshing_'
'High'
'DES^_'
'REL\u^_'
'rim'
'pia'
'nym'
'Offset'
'freq^_'
'PROTO'
'Heads'
'Option'
'asc'
'ssl'
'Arti'
'fee'
'block\u^_'
'Mid'
'elasticsearch^_'
'0x7f01000'
'Taint'
'171'
'circle'
'Collections^_'
'automat'
'Containing_'
'maker_'
'eer_'
'WS\u^_'
'gn_'
'PAT'
'Notice_'
'Federation^_'
'Sas'
'Don'
'renderer^_'
'Pc^_'
'Ring'
'siti'
'cont^_'
'657'
'cam^_'
'386'
'cda'
'f3'
'needed^_'
'ENTER'
'381'
'Par_'
'Starlark^_'
'xpp_'
'436'
'marked^_'
'DELETED_'
'gi_'
'Chained^_'
'Valida'
'Reflect'
'CHANGE'
'nes'
'result2_'
'transformed^_'
'substr'
'Constructors_'
'INS\u^_'
'AM\u^_'
'office_'
'Locks_'
'inputs^_'
'Spot_'
'ary'
'runner^_'
'Expr'
'Az'
'dbm'
'Unde'
'Protobuf^_'
'Te'
'745'
'inverse_'
'451'
'freemarker_'
'PROXIES_'
'Mang'
'Evidence_'
'"??"_'
'MES'
'Ir^_'
'unsafe_'
'ddl_'
'lte'
'Ei^_'
'tad'
'PART\u^_'
'exa'
'AW^_'
'chk'
'valida'
'FRAME'
'thoughtcrime_'
'nva'
'INV'
'authenticate^_'
'RAC'
'599'
'779'
'stats'
'ute'
'checking^_'
'detach^_'
'INA'
'"###'
'down'
'Apache^_'
'Scripts_'
'HIDE\u^_'
'INCLUDE\u^_'
'm4'
'institution'
'?\\^_'
'sz^_'
'intercept_'
'ging^_'
'u2_'
'),"_'
'wat'
'lient'
'Uncaught^_'
'Prog'
'Four'
'}''
'STE'
'editing^_'
'pagination_'
'idc'
'cog'
'Child'
'love'
'Lex^_'
'a0'
'ition_'
'Upgrade'
'natural^_'
'TER\u^_'
'enable'
'confirm_'
'HC'
'COD'
'math3_'
'788'
'Am^_'
'335'
'SEL'
'dom4j_'
'op1_'
'HU^_'
'heli'
'BOARD\u^_'
'Snap^_'
'NTA'
'lea'
'subc'
'edo'
'Sample'
'race_'
'rado'
'Datos^_'
'interp'
'ght'
'270_'
'initial'
'truth_'
'servers^_'
'gmail_'
'Province^_'
'sst'
'jaxrs_'
'Continue_'
'Alloc^_'
'palette_'
'072'
'favorite^_'
'z2_'
'JVM'
'Eco'
's4'
'bject_'
'Github^_'
'vy'
'alc'
'513'
'Addon^_'
'296'
'0x08_'
'invest'
'navigator_'
'eve'
'door^_'
'HIVE\u^_'
'Creat'
'348'
'Trie_'
'Street_'
'nso'
'nova'
'clar'
'inria_'
'BAD'
'050'
'Rm'
'kohsuke_'
'wolf'
'dmn^_'
'Switcher_'
'Marshalling_'
'md\u^_'
'Recent'
'Adjustment_'
'147^_'
'Ass'
'orl'
'PB^_'
'Nc'
'Jira^_'
'Blur^_'
'misc^_'
'ALS'
'trading'
'backs'
'mouse'
'extracted^_'
''.^_'
'dad'
'Fal'
'rui'
'jid_'
'drug'
'Kt'
'HISTORY\u^_'
'xing'
'webservices_'
'mass^_'
'Factors_'
'53'
'ssion'
'ROWS_'
'0x10'
'deck_'
'zing^_'
'denominator_'
'535'
'Walk^_'
'oes_'
'Sell^_'
'496'
'evo'
'linear_'
'dem'
'toma'
'Drive_'
'Resc'
'zes'
'operation'
'Blend^_'
'EPSILON_'
'Amqp^_'
'VP^_'
')*'
'opening^_'
'order\u^_'
'Stea'
'LON'
'Zookeeper^_'
'Are'
'dbo'
'Distinct_'
'RB^_'
'mbo'
'steps^_'
'Swagger^_'
'Ping_'
'wang'
'oint_'
'deserializer_'
'Variants_'
'2015_'
'WSDL^_'
'Subt'
'OW'
'mon^_'
'/[\u\u\uCARET\u\u\u'
'Bre'
'({'
'ach'
'tern'
'PRIVATE\u^_'
'Combine^_'
'Games^_'
'Cy^_'
'europa_'
'dab'
'config\u^_'
'Expense^_'
's0'
'990'
'signum_'
'maximum_'
'Cpu_'
'chain'
'ean^_'
'Bonus^_'
'260'
'svc_'
'boo'
'1234567890^_'
'compatible^_'
'REFRESH\u^_'
'Card'
'INSENSITIVE_'
'parse\u^_'
'T5_'
'RECORD'
'refer'
'Necessary_'
'Blaze^_'
'124_'
'Pagination_'
'yen'
'iapi_'
'dto^_'
'PROTOCOL_'
'525'
'Elt_'
'749'
'ven^_'
'until^_'
'413'
'jav'
'704'
'Cb^_'
'Gc^_'
'Cut_'
'finger'
'TP\u^_'
'$\u^_'
'plu'
'authenticated^_'
'ean'
'606'
'delta'
'480_'
'metadata'
''}'
'NODE'
'Capt'
'Indexer^_'
'VM'
'Mode'
'Arrays^_'
'bla^_'
'031^_'
'jca'
'gio'
'explore'
'debug'
'SI_'
'Nota^_'
'Man^_'
'Scan'
'810'
'Terminated_'
'::'
'awssdk_'
'Authorized_'
'608'
'2a'
'Territory_'
'Recommendation^_'
'RED\u^_'
'heads'
'NY'
'HOST'
'EXTRACT'
'lucee_'
'boot'
'Inherit'
'Corre'
'datatransfer_'
'availability^_'
'circuit^_'
'ror'
'Total'
'RETURN_'
'998'
'207'
'rate'
'Failover^_'
'way'
'charge_'
'Panel3^_'
'grupo'
'Zm'
'VIEW'
'493'
'ivi'
'atom'
'account\u^_'
'DASH'
'otr'
'indu'
'seek'
'Mixin^_'
'Indi'
'code\u^_'
'Sun'
'Nano_'
'Credit_'
'ADMIN^_'
'proxy'
'NMS^_'
'Far'
'(){}'
'unwrap^_'
'wn^_'
'CSS\u^_'
'MENT^_'
'upti'
'etc^_'
'SECURE'
'377^_'
'body'
'0x7f'
'Tg'
'821'
'observation^_'
'sequence'
'Sponge^_'
'le\u^_'
'depend'
'Ang'
'hat'
'PRIORITY\u^_'
'decompiler_'
'AIR'
'Parent'
'Ortho'
'ido^_'
'0100'
'Bold_'
'ARM'
'ph^_'
'Branches_'
'enter'
'Ante'
'HOR'
'438'
'Live'
'703'
'II'
'CY'
'trigger'
'686'
'sse_'
'authenticator_'
'TESTS'
'ky^_'
'fall'
'00001'
'motor'
'Unresolved^_'
'quot^_'
'Vector'
'jack'
'gur'
'AIN'
'oro'
'Hat'
'CHAIN'
'weapon^_'
'DQ'
'DIV^_'
'Drag'
'imm_'
'}]'
'SHARED\u^_'
'SELECTED_'
'MODIFIER'
'Extra'
'Contour'
'HINT'
'755'
'712'
'15'
'Sql'
'Alu'
'lesson'
'securesms_'
'peg'
'JW'
'edges^_'
'jmx_'
'fish'
'=='
'guard_'
'NORMAL\u^_'
'east^_'
'Remark_'
'Exited_'
'Recorder^_'
'024^_'
'CCC'
'Throttle^_'
'RX'
'THROW'
'steam'
'Atoms_'
'elm'
'rar^_'
'ong'
'Trusted^_'
'tapestry5_'
'Inputs^_'
'Generating^_'
'pd^_'
'Wildcard_'
'Verbose_'
'PREFS\u^_'
'mplew_'
'064'
'PRESS'
'614'
'Lex'
'fake'
'Clustering^_'
'19002_'
'migration_'
'rocess'
'ngs_'
'Strategies_'
'840'
'Exclusive^_'
'ute_'
'holo\u^_'
'oto'
'glow'
'between_'
'GRANTED_'
'i5_'
'up\u^_'
'tring_'
'refu'
'iterate^_'
'FR'
'third_'
'Director_'
'posta'
'PRE\u^_'
'2F_'
'Xmpp^_'
'Certificates_'
'626'
'structures_'
'fast_'
'static'
'Proto'
'ATTACK'
'lly^_'
'chan_'
'IJ'
'Sc^_'
'RY_'
'Markup_'
'Eva'
'security'
'Yaml_'
'scu'
'jdo_'
'SH'
'Cra'
'401_'
'spark'
'kv^_'
'484'
'manage_'
'ldi'
'tl^_'
'Substitution^_'
'define_'
'Sections^_'
'Widths_'
'Property'
'N2_'
'Stone_'
'Udp^_'
'tit'
'APPROVE\u^_'
'receipt^_'
'Salt_'
'hq_'
'Repl'
'MAPPING\u^_'
'Trim_'
'Aw'
'mq'
'448'
'Mess'
'MINUS_'
'CRS_'
'RAI'
'Frontend^_'
'preprocess'
'foreground^_'
'ATOM'
'Factory'
'House_'
'sku^_'
'cast'
'brain'
'suggest^_'
'lip'
'Market'
'wal'
'mntm^_'
'beans'
'STORE_'
'IZ'
'jog'
'LIMIT\u^_'
'JK'
'ken^_'
'Detected^_'
'BQ'
'wall_'
'buff'
'implement^_'
'Replicas_'
'FILTER'
'bumptech_'
'Mate'
'license_'
'Formatting^_'
'Quiz^_'
'Tablet^_'
'Foo'
'Initialize_'
'ache'
'borrow'
'RAM'
'subnet^_'
'Take'
'TX^_'
'123456^_'
'Rgb'
'067'
'like'
'Posts_'
'wifi_'
'Score'
'updatable_'
'Ast_'
'Accepted_'
'Borrow'
'prior^_'
'kap'
'tracks_'
'ALT'
'WIDGET\u^_'
'luck'
'BG^_'
'PUT^_'
'jamon^_'
'Restricted^_'
'undertow_'
'Tax'
'ENA'
'skill'
'466'
'aly'
'550'
'ITY_'
'483'
'quo'
'113^_'
'$a'
'gte'
'Notif'
'cons'
'IND'
'scripts_'
'Redis'
'recon'
'CMS^_'
'2004^_'
'rge'
'types'
'rw^_'
'Ada'
'gis'
'transient^_'
'CMD_'
'Plugins^_'
'Badge^_'
'(['
'Raise'
'dz'
'Not'
'result\u_'
'myco'
'RANK'
'ism'
'oard'
'crypto'
'close'
'inner'
'jet_'
'TIO^_'
'Ps^_'
'Vr'
'uce'
'Hotel^_'
'coo'
'173'
'ntr'
'ttl^_'
'radio'
'ill'
'Backing^_'
'zei'
'STATEMENT_'
'c3'
'0x00000020_'
'und'
'BINARY\u^_'
'Brand_'
'999^_'
'Development^_'
'549'
'dog'
'Bo^_'
'xa_'
'seip_'
'167'
'018'
'QA^_'
'PARA'
'DD_'
'Bars_'
'I2^_'
'COLOR'
'dialogflow_'
'uent'
'packet'
'ime^_'
'pdf'
'(?^_'
'spell_'
'thes'
'objecti'
'DEPTH\u^_'
'Crit'
'abu'
'Scorer_'
'locat'
'result1_'
'Planner_'
'enu'
'save\u^_'
'Parsing_'
'jwt_'
'iona'
'fabric_'
'ROT'
'rta'
'Publication_'
'PIC'
'Cer'
'cust'
'Automatic^_'
'453'
'newe'
'].'
'Sector_'
'ison'
'Today_'
'Removal^_'
'ttr'
'Uri'
'RADI'
'ZZ\u^_'
'Corr'
'LIGHT'
'chrono'
'Rooms_'
'Names'
'Deriv'
'404'
'method1'
'Reso'
'Executing^_'
'2130'
'pco'
'Pas'
'performance^_'
'Has'
'formula^_'
'Cs^_'
'gad'
'ICS'
'DG'
'y3_'
'wee'
'Des'
'267'
'rfc'
'BOR'
'question'
'device\u^_'
'semi'
'PDF_'
'gna'
'amazon^_'
'tq'
'Ingest^_'
'119_'
'Sci'
'versions^_'
'Scale'
'Offering_'
'II_'
'Equality_'
'elle'
'Taken_'
'Fund^_'
'Enum'
'sonatype_'
'pf^_'
'Tim'
'Audit_'
'Append'
'389'
'burn'
'payment'
'mapa'
'ah^_'
'215'
'THEN^_'
'bookmark^_'
'repo'
'yout'
'T0_'
'>,^_'
'Seen^_'
'Rr'
'023^_'
'Mea'
'Flavor^_'
'xg'
'rra'
'mask'
'Sanity^_'
'674'
'mute'
'Ins'
'single'
'Esta'
'':'
'PREC'
'Authorities_'
'Seq'
'BACKGROUND_'
'preserve^_'
'Type2_'
'pom_'
'Bb'
'igo'
'473'
'stand'
'=?,^_'
'uss'
'Vaadin^_'
'FILES\u^_'
'Contain^_'
'468'
'369'
'jian'
'ledger^_'
'morphi'
'declare'
'jjmatched^_'
'lean'
'Intersection^_'
'6d'
'Fact'
'cuc'
'dou'
'cess'
'Stuff_'
'UNIT'
'603'
'Poi^_'
'Partitioner_'
'target\u^_'
'ton_'
'465'
'qin'
'Abs'
'tru'
'906'
'BIO'
'mer^_'
'BR^_'
'PUB'
'Para_'
'MOB'
'Loss_'
'exit'
'Tank^_'
'Editor'
'pending_'
'418'
'055'
'Sem^_'
'bright'
'NE^_'
'ask'
'metacentrum_'
'||'
'Egg'
'sal_'
'LINES'
'Rub'
'workers_'
'516'
'Gener'
'sqle_'
'array\u^_'
'dns_'
'Disposition_'
'individual^_'
'credits'
'\\":\\""_'
'ish_'
'expand'
'757'
'liquid'
'xz'
'inder_'
'squid'
'evel'
'775'
'556'
'asy'
'Tracking_'
'Pol'
'planet_'
'">'
'yal'
'lass'
'Dos'
'Dn^_'
'STRUCTURE'
'documentation^_'
'corner^_'
'Tiny^_'
'SCRIPT_'
'Multic'
'Side'
'Reads_'
'lex_'
'Rid'
'248'
'fld'
'ety'
'446'
'vol_'
'Quit^_'
'Importer^_'
'  '
'kle'
'tls^_'
'hub^_'
'civ'
'webt'
'life_'
'iro'
'recursive_'
'parcel'
'\\">'
'Gain_'
'DRI'
'Hold'
'ilo'
'217'
'allo'
'WORD\u^_'
'Reward^_'
'accumulator_'
'large'
'qual'
'interrupted^_'
'Creature^_'
'EXAMPLE\u^_'
'bx'
'support'
'illa'
'Land'
'echa'
'Point2'
'ino^_'
'weixin_'
'ONS'
'Wm'
'ery^_'
'cse'
'u1_'
'reca'
'qty^_'
'mil_'
'andre'
'Nature_'
'cards^_'
'Label6_'
'rip'
'fhir^_'
'REP'
'Fish'
'oll'
'Field1'
'FQ'
'mount'
'--"_'
'tem_'
'deu'
'Stores_'
'LANGUAGE\u^_'
'Keycloak^_'
'Split'
'Multivalued^_'
'ipa'
'tuple'
'statuses_'
'nib'
'RESOURCE'
'stre'
'mine^_'
'828'
'783'
'ung^_'
'Avail'
'QE'
'MAIN_'
'711'
'824'
'quad'
'quit_'
'Issuer_'
'014'
'Campos_'
'1.6'
'1.5'
'tob'
'jj_'
'fig'
'omp'
'HTTPS'
'b0'
'buscar^_'
'Possible_'
'la1_'
'tbl'
'effect'
'660'
'who'
'north^_'
'beans^_'
'"--"_'
'opl'
'940'
'Acknowledge'
'php_'
'ios_'
'graphic_'
'RES\u^_'
'CELL'
'228'
'consum'
'NAM^_'
'lost^_'
'comparison_'
'Listening^_'
'fair'
'2.5'
'clu'
'opent'
'pace^_'
'insta'
'displayed^_'
'combine_'
'950'
'jdk^_'
'Similarity^_'
'Varchar^_'
'CYCLE'
'docker_'
'ZERO\u^_'
'Fhir^_'
'degrees_'
'812'
'077'
'Kw'
'Lm'
'Plat'
'Cd_'
'dma'
'Prepar'
'Javac^_'
'760'
'2020'
'Mari'
'his'
'Assist'
'spinnaker_'
'rsl'
'Something_'
'CORE'
'RANDOM_'
'arn'
'aint'
'silent'
'Least_'
'mli'
'Ari'
'wp_'
'234^_'
'mds'
'Updater^_'
'jud'
'datatype^_'
'ureq_'
'access\u^_'
'838'
'KILL'
'Pla'
'z\u^_'
'enrich'
'Dtos_'
'cust^_'
'622'
'BW'
'MET'
'wsdl_'
'species_'
'rand'
'sampling^_'
'proposal^_'
'crud_'
'thumbnail_'
'kol'
'Bands_'
'btr'
'STOPPED_'
'chromium_'
'811'
'Req'
'perform'
'Retrieve'
'LD^_'
'Defaults^_'
'CAST_'
'Animal^_'
'∅∅∅∅∅"_'
'geotools_'
'Dev'
'nch'
'TH^_'
'RET\u\u\u\u\u\uCARE'
'Hora'
'sta_'
'361'
'Stage'
'536'
'426'
'270^_'
'Cancellation^_'
'START'
'OFF'
'Segments^_'
'456^_'
'abstract'
'Dialog\u^_'
'722'
'shan'
'avo'
'TTL_'
'Dese'
'PRODUCT'
'tua'
'coder_'
'Flight_'
'DEFINITION_'
'During^_'
'ored^_'
'FIX'
'Affi'
'ten_'
'prom'
'Hole'
'opened^_'
'gate^_'
'AAAA'
'>.'
'CUT'
'ji^_'
'UNDER'
'METRIC'
'titan_'
'gie'
'ASE'
'Acc_'
'uniform^_'
'0.06'
'053'
'edt'
'Peek'
'Orbit'
'uploaded^_'
'esti'
'rtp'
'same_'
'ote'
'aws_'
'merc'
'contained^_'
'PARAMS_'
'Grouping_'
'fsm_'
'WHEN^_'
'histo'
'geti'
'b6'
'Lw'
'oki'
'ald'
'Traverse'
'YN'
'skipped^_'
'inter^_'
'Initial_'
'Render'
'nic'
'coordinator_'
'Tensor_'
'food_'
'tag\u^_'
'signing^_'
'STAR'
'comma^_'
'Validators_'
'Mem'
'Await'
'firstname_'
'dict'
'SEED'
'LA^_'
'ORDER'
'Pull'
'gvsig_'
'7000'
'Cd^_'
'785'
'pulse'
'Roa'
'sty'
'Polynomial^_'
'daw'
'ass'
'STIC'
'computed^_'
'AMP'
'pct'
'Analyzed^_'
'015'
'editor'
'DISPID_'
'tap'
'story_'
'Past^_'
'hosts^_'
'Glide_'
'DELTA_'
'aw_'
'Secs_'
'11'
'Keys'
'0.3_'
'Lbl_'
'Activ'
'"[]"_'
'o2'
'Packed^_'
'mas'
'big_'
'302'
'Partner\u^_'
'Menus_'
'mento_'
'cmmn^_'
'bpel_'
'lose'
'CONDITION'
'Consume_'
'embedded_'
'dept'
'675'
'polar'
'474'
'pris'
'ness'
'Characteristics_'
'Spec'
'SR^_'
'ige'
'FE^_'
'630'
'TRUST'
'gm_'
'rio'
'52'
'144^_'
'global'
'Ine'
'sosy\u^_'
'bay'
'READY_'
'Pane2_'
'rtn_'
'904'
'Vend'
'odd'
'Unt'
'INSTALL'
'Relat'
'Automation^_'
'Build'
'lets_'
'adapter'
'Wind^_'
'PA^_'
'sell'
'Norm_'
'Nick^_'
'player\u^_'
'ces'
'ub^_'
'sno'
'bt\u^_'
'Renew'
'dbi'
'Tru'
'Trying^_'
'");"_'
'nim'
'ost'
'Gather'
'subpa'
'Struct'
'Cou'
'tow'
'modal_'
'gradle^_'
'island'
'diagnostic_'
'B2^_'
'CF_'
'USB'
'Ast'
'705'
'tes^_'
'GUID'
'Diag'
'hupa^_'
'colo'
'263^_'
'163'
'Pred_'
'Jr'
'Perm_'
'Observe'
'abb'
'extend_'
'DIA'
'Coder^_'
'iam_'
'RES'
'JP^_'
'withdraw'
'521'
'yw'
'oria'
'INIT'
'waypoint'
'EXCLUDE'
'lastname_'
'Land^_'
'Predict'
'cruise^_'
'paci'
'mate'
'Being^_'
'adwords^_'
'Iface_'
'Ont^_'
'Make'
'Condition'
'mozu_'
'elk_'
'WAY'
'Pom^_'
'"\\"\\'
'Picasso_'
'0x1_'
'adjust'
'Nic^_'
'ips'
'Heat'
'owl_'
'direct_'
'Invest'
'Poly_'
'225'
'seen_'
'quant'
'nv_'
'RID'
'mix_'
'LINE'
'350_'
'Instructor^_'
'EXECUTION\u^_'
'437'
'pat_'
'gamma_'
'Mas'
'Correction_'
'1.7'
'30000_'
'TT^_'
'aux'
'QR'
'Luc'
'crc_'
'COMMENT^_'
'.*^_'
'Chrom'
'Signer^_'
'FACTORY\u^_'
'TW'
'DE'
'VER_'
'114^_'
'recipients_'
'Enumerator_'
'cree'
'Planet^_'
'00L_'
'ath^_'
'formula'
'Unin'
'Reactor^_'
'header\u^_'
'LIT'
'Forbidden^_'
'Demoda^_'
'ana_'
'Injected^_'
'STRA'
'enta'
'Potion_'
'quad^_'
'Custom'
'frag'
'SHIFT\u^_'
'text1_'
'Int64_'
'sarl^_'
'mbl'
'320'
'621'
'data1_'
'y\u_'
'cript'
'Circu'
'Decorator^_'
'512^_'
'ava_'
'String1_'
'";\\^_'
'neighbour'
'509^_'
'mbr'
'lan^_'
'Rece'
'Adjust^_'
'672'
'FACE'
'Ale'
'2b'
'WOOD'
'VERTEX\u^_'
'317^_'
'more'
'rooms_'
'spd'
'credit'
'STRUCT\u^_'
'RT\u^_'
'wx'
'Removal_'
'Unified^_'
'Osc'
'fox_'
'Css_'
'Lexer^_'
'Inserted_'
'DEAD'
'Less'
'Interact^_'
'D5^_'
'766'
'DETECT'
''])"_'
'travel^_'
'traffic^_'
'Len^_'
'Grow'
'∅a'
'Coc'
'sense'
']],^_'
'Varia'
'CDO^_'
'remainder_'
'cht'
'KB_'
'Hyracks^_'
'Composition^_'
'clazz^_'
'Crash'
'stem'
'Pts_'
'Preset^_'
'PATCH'
'Packet'
'Bn'
'tpl'
'client\u^_'
'CONC'
'discard^_'
'FIELD^_'
'eof_'
'restart_'
'constant'
'449'
'repair^_'
'Label2'
'decompress'
'Kd'
'plane_'
'nfc'
'px'
'drawing^_'
'lig'
'Computed^_'
'A9'
'krad_'
'FG'
'iy'
'Science^_'
'mutation^_'
'assum'
'Plate^_'
'PHONE\u^_'
'Hello_'
'3a'
'Inject'
'A2^_'
'Hard'
'Ng'
'scr_'
'chars^_'
'eva'
'COUNT'
'Special'
'Uid^_'
'Singularity^_'
'adde'
'distributed_'
'Skipping^_'
'multiply^_'
'cau'
'Word'
'FEE'
'hib'
'Disconnected_'
'weak^_'
'966'
'Rech'
'FLI'
'508'
'266'
'nts^_'
'hir'
'require'
'overall^_'
'}.^_'
'Kan'
'Eo'
'ULT'
'privacy_'
'COMMON\u^_'
'507'
'Relay^_'
'S4'
'Fav'
'lec'
'learning^_'
'Sharding^_'
'Recover'
'Boots'
'utili'
'ject_'
'weapon_'
'Coin^_'
'01\u^_'
'OCT'
'653'
'"∅∅∅∅∅∅∅∅∅"_'
'Mid^_'
'datac'
'Cong'
'Dyn^_'
'basics_'
'noi'
'ICA'
'rom_'
'Water_'
'packages^_'
'stock'
'533'
'oda'
'mu^_'
'after'
'dap'
'FOLLOW'
'Lob'
'522'
'317'
'GOOD'
'dbf_'
'394'
'Characters^_'
'2e'
'Deep_'
'Rus'
'spatial^_'
'Random'
'Affected^_'
'jasper_'
'REQ'
'train'
'dad^_'
'Power'
'Collide'
'top\u^_'
'movement^_'
'Processes_'
'Spr'
'Ignored_'
'00000000^_'
'pace'
'XM'
'Endian^_'
'businessentitie^_'
'Contribution^_'
'731'
'ME\u^_'
'344'
'questions_'
'trip'
'shoot'
'ges'
'das'
'PED'
'Integrity^_'
'EXPORT\u^_'
'SCO'
'aiplatform_'
'1999^_'
'alt3'
'Ticker_'
'857'
'decorator_'
'277'
'object\u^_'
'chen_'
'Schema'
'Analyse'
'392'
'anno_'
'rela'
'rst'
'HOUR^_'
'Microsoft^_'
'|('
'Mil'
'represent'
'matched_'
'Peers_'
'Ef'
'lead'
'ano_'
'Switche'
'Listener'
'r4_'
'sonar^_'
'q2_'
'pz'
'efe'
'bj_'
'Fast_'
'Bis'
'kis'
'DOWN^_'
'RK'
'JDBC_'
'Shade'
'STEP_'
'HQ'
'Sit'
'datala'
'Wu'
'Home'
'executable_'
'0x02'
'dial'
'rya'
'SHIP'
'glob'
'avail'
'fas'
'VOL'
'#{^_'
'resc'
'Reward_'
'books^_'
'heading_'
'Pkg^_'
'ura^_'
'chris'
'op2_'
'Early^_'
'Cacheable_'
'Sep'
'467'
'hal_'
'POI'
'King'
'macro_'
'Earn'
'matt'
'Keystore^_'
'Ftdc^_'
'cxf_'
'ENE'
'ERR'
'HEALTH'
'Brightness_'
'camp'
'Turn'
'0D_'
'Deviation_'
'service\u^_'
'today^_'
'special_'
'PP\u^_'
'Conference^_'
'ort^_'
'item2_'
'correctly^_'
'Thost^_'
'Opened^_'
'ANCE'
'980'
'Settable^_'
'bigquery_'
'Interrupted_'
'Bl_'
'875'
'VOID_'
'ied^_'
'cma'
'Job'
'570'
'VECTOR'
'Held^_'
'gest'
'templ'
'INTERFACE\u^_'
'20000'
'SEQUENCE\u^_'
'Outside^_'
'Arrival^_'
'purpose'
'TOD'
'S2'
'x5'
'zation^_'
'Ple'
'Object\u^_'
'GVR^_'
'games'
'Included_'
'Administrator_'
'DM^_'
'161^_'
'uth'
'THAN_'
'Scrolling^_'
'Reb'
'Sum'
'subscriptions_'
'asse'
'MULTI'
'Executions_'
'B3'
'Stella'
'Oi'
'DEF_'
'kla'
'Forms^_'
'profiles^_'
'B2_'
'poke'
'xref^_'
'ree_'
'evento'
'URI'
'784'
'Banner_'
'Unli'
'Equivalent^_'
'fav'
'greg'
'corr'
'482'
'475'
'452'
'ncl'
'src\u^_'
'how'
'Exported^_'
'84\u^_'
'tel^_'
'sss'
'pwd^_'
'benchmark^_'
'Impu'
'Fm^_'
'tested^_'
'Pressure^_'
'dus'
'overwrite^_'
'fluent_'
'cue'
'Forms_'
'tone^_'
'rot^_'
'pojo^_'
'creat'
'ITEM'
'Brick^_'
'Dir'
'qo'
'marker'
'fica'
'yle'
'Follower_'
'will'
'20000_'
'params'
'logy^_'
'378'
'luni'
'OPT'
'Grade'
'RAW\u^_'
'Vd'
'3.0'
'try'
'Sport'
'DEVICE'
'aya'
'Mdd^_'
'VALUES\u^_'
'Bundler_'
'Axes_'
'insn_'
'Prim^_'
'PAIR'
'spacing_'
'091'
'scalar^_'
'Envi'
'moving^_'
'Dragged_'
'Shu'
'tai'
'Density^_'
'512'
'8080_'
'Compass^_'
'legend^_'
'Reaction_'
'Built_'
'$$arezi$$\u^_'
'XL'
'IZE_'
'900_'
'NONE^_'
'xls^_'
'MAP^_'
'Ban^_'
'362'
'FEATURES_'
'EXT'
'Inde'
'Lru^_'
'rede'
'guide'
'zan'
'Stylesheet'
'Questionnaire^_'
'Linea'
'flux'
'575'
'solid'
'Sold'
'398'
'Vm'
'iae_'
'Multipart_'
'Todo_'
'ry\u^_'
')}'
'Core'
'SCORE_'
'0x06_'
'544'
'Helix^_'
'jsc'
'ENTI'
''<'_'
'North^_'
'mip'
'Concept'
'uis'
'Tracing_'
'Extern'
'ARR'
'Movies_'
'xmi'
'myr'
'infra_'
'OWNER_'
'optimizer_'
'endo'
'ape'
'SSL_'
'su^_'
'fis'
'rise'
'circu'
'bbox_'
'0002'
'439'
'\^_'
'736'
'035'
'inform'
'063'
'Kat'
'stl'
'QD'
'ream_'
'Aura^_'
'Gan'
'Dst_'
'Title'
'TEL'
'Nav_'
'Defect'
'uci'
'dsi_'
'SITE'
'SEVERITY\u^_'
'override_'
'732'
'Tri'
'Filled_'
'want'
'Perform'
'Joint_'
'prefer'
'CES'
'BU'
'870'
'Pt^_'
'INDI'
'jed'
'NDE'
'Mutate^_'
'Contain_'
'876'
'spawn_'
'queries^_'
'var13_'
'accepts_'
'Kotlin^_'
'Friends_'
'Adapters_'
'Uninitialized^_'
'CASE^_'
'680'
'xi_'
'guess^_'
'mutat'
'dat_'
'dao'
'mba'
'position'
'cu'
'vend'
'assessment^_'
'ah_'
'Operands_'
'011^_'
'War'
'915'
'aw^_'
'value\u_'
'Retrofit^_'
'Favourite'
'COMPARATOR_'
'uni\u^_'
'Collapsed^_'
'sleepycat_'
'Activate_'
'2.0'
'rw_'
'MX'
'data2_'
'andengine_'
'TF_'
'HANDLER_'
'FOUR'
'dw_'
'Artifacts^_'
'AW'
'dna'
'Entre'
'Arial^_'
'complex_'
'multipl'
'logback_'
'Signer_'
'081'
'Dat'
'ABSTRACT\u^_'
'iner'
'ASCII_'
'die^_'
'Dummy_'
'zhi'
'storage'
'dh_'
'066'
'Inherited^_'
'PENDING_'
'Disco'
'Crawl^_'
'tao'
'Accelerator_'
'wra'
'onic'
'Exercise^_'
'Bubble^_'
'POS\u^_'
'UAL'
'486'
'unp'
'Ocl^_'
'Description'
'tune'
'UPLOAD\u^_'
'JF'
'configura'
'Mo^_'
'People_'
'Fle'
'NEXT_'
'control'
'NGE'
'Wind'
'190_'
'tuxguitar_'
'Defe'
'****'
'crash'
'XOR'
'Gas^_'
'fit'
'ACCESS_'
'accuracy_'
'GS^_'
'cron^_'
'Pricing^_'
'audio'
'chen'
'Variation_'
'Busy^_'
'Km'
'dr^_'
'Nonnull^_'
'Mw'
'herac_'
'folder'
'discover^_'
'Wire_'
'443'
'DEBUG^_'
'Gf'
'virt'
'Detach_'
'PERMISSION_'
'Ether'
'Editing_'
'Dot'
'IGN'
'indice'
'file2_'
'ATT\u^_'
'ido_'
'empty\u^_'
'riv'
'cron'
'sing'
'hij'
'∅∅∅∅∅∅"_'
'F1_'
'modify_'
'ZT'
'QP'
'Xpath_'
'ues'
'inal'
'general'
'compat_'
'vei'
'food'
'Matrix4f_'
'e3'
'Meet'
'[\\"^_'
'abcd^_'
'imm'
')(^_'
'Selectable_'
'Glass^_'
'Deliver'
'woo'
'REVERSE'
'obtener^_'
'duck'
'Dri'
'paste^_'
'Addresses^_'
'ros_'
'545'
'waveprotocol_'
'LW'
'Drag_'
'ebay^_'
'clients^_'
'graf'
'fout_'
'Sep_'
'survey_'
'Ht'
'Snapshots_'
'baz'
'Resultado'
'instr_'
'Complement'
'Mech'
'Starts^_'
'gzip^_'
'OPTIONAL_'
'Npc_'
'DN^_'
'alk'
'WG'
'myl'
'THER'
'∅∅∅∅∅∅'
'230_'
'instantiat'
'0010'
'RAL'
'RGBA_'
'echo_'
'Recorded^_'
'PROFILE_'
'Breaker^_'
'spot^_'
'786'
'BASIC\u^_'
'Occurrences_'
'formatter^_'
'Adjust'
'LLA'
'OSE'
'hem'
'ubi'
'adl'
'HP'
'schedule'
'Detection_'
'0.25_'
'ows'
'slot'
'substitution^_'
'396'
'(\\""_'
'TOPIC_'
'ILE'
'VALID_'
'Hang'
'matching_'
'gemfirexd_'
'apollo_'
'Codeable^_'
'388'
'injection_'
'152^_'
'providers^_'
'CLASS^_'
'armeria_'
'Procedure'
'Epi'
'573'
'four'
'flash^_'
'curr'
'Cg'
'921'
'Vocab'
'[\\\\^_'
'Glob'
'model\u^_'
'codahale_'
'Za^_'
'MOVE'
'823'
'gn^_'
'JD^_'
'ATT'
'(/'
'ekt'
'[]"_'
'Agenda^_'
'ajax^_'
'VAL\u^_'
'116^_'
'biblio'
'Subsystem^_'
'656'
'0x7f07000'
'026^_'
'Ordina'
'SIT'
'VH'
'Bon'
'Ingres'
'aar'
'RELATIVE\u^_'
'Align'
'helix_'
'CONNECTI'
'pax_'
'ONE'
'welcome^_'
'imaging_'
'Appearance\u^_'
'140^_'
'Positions^_'
'ALIGN'
'outline^_'
'Focused^_'
'zzle'
'Tang'
'rein'
'"\\",^_'
'dialog'
'Find'
'655'
'dne'
'Message\u^_'
'nou'
'enchantment'
'Bound'
'neighbor_'
'277^_'
'Lc'
'bec'
'EXE'
'73'
'fdl^_'
'campo'
'FAIL\u^_'
'BAS^_'
'MODID_'
'Incompatible^_'
'276'
'YPE\u^_'
'Algorithms_'
'touch_'
'occ'
'tpa'
'IAN'
'Deleting^_'
'WHEN\u^_'
'cid'
'Transitive^_'
'generate'
'NUMERIC_'
'EOL_'
'740'
'initialization^_'
'ult'
'rli'
'populate_'
'Embedded_'
'130^_'
'YF^_'
'deltas'
'sky^_'
'379'
'ient_'
'Issue'
'best'
'EXTEND'
'Vanilla^_'
'Listen^_'
'Bt^_'
'yaw_'
'URN'
'Neighbor_'
'interpret'
'Abi'
'Hal'
'\\\\)'
'BID'
'zp'
'states^_'
'epl'
'B1_'
't4_'
'knime_'
'135_'
'CL_'
'911'
'sop'
'arena_'
'RANDOM\u^_'
'kill'
'Wel'
'Fro'
'ong_'
'ASS'
'cep'
'Pop_'
'inserted^_'
'Fu'
'BG'
'trust_'
'ove'
'Histo'
'DISTANCE_'
'Triggers_'
'Broken^_'
'   "_'
'dee'
'Smile'
'invoked^_'
'Confidence_'
'390'
'sell^_'
'Substitute'
'POLL'
'datetime^_'
'isr_'
'temporal_'
'pile'
'bao'
'Space'
':\\"^_'
'pen^_'
'Breakpoint_'
'ftp'
'every^_'
'extent_'
'Heat^_'
'filled^_'
'sau'
'Unchecked_'
'Wt'
'910'
'ticks_'
'ocr'
'Polar'
'PV^_'
'Board'
'White_'
'rda'
'----'
'cili'
'cmr_'
'cation^_'
'Steammessages^_'
'632'
'guide_'
'025^_'
'Und'
'Cab'
'ARY'
'1101'
'Categoria_'
'Activat'
'neuron'
'AA_'
'ker_'
'exports^_'
'OUS'
'inset'
'alternate^_'
'iable^_'
'AGE_'
'Look'
'0x7f0c00'
'fail\u^_'
'TAN'
'1234_'
'Contact'
'253'
'Fluent_'
'propagation_'
'bos'
'746'
'friends^_'
'chart'
'))))'
'three'
'Fitness^_'
'Ptr^_'
'unary^_'
'oud'
'FORWARD_'
'ical_'
'Spa'
'Activities^_'
'485'
'Ranger^_'
'Coordinates^_'
'333'
'CTION'
'inactive^_'
'dmin_'
'oun'
'merged_'
'Bar1_'
'562'
'gcm'
'Atlas_'
'pivot^_'
'Audit'
'()}'
'912'
'expression'
'MENU_'
'succ'
'Dialog'
'terr'
'kick'
')''
'axis'
'Breaker_'
'randomize'
'chem'
'THI'
'Refund^_'
'210_'
'D0'
'498'
'indent'
'"##^_'
';}'
'sk89q_'
'coerce'
'FORCE\u^_'
'tuples_'
'Dispose^_'
'Cert'
')))"_'
'sib'
'iga'
'charts_'
']}'
'Qo^_'
'NOP'
'nearest^_'
'scala'
'array2_'
'banner^_'
'PKC^_'
'.<^_'
'ORB'
'Control'
'Wi^_'
'View1_'
'Fn'
'ngram'
'Float3'
'mina_'
'Identified^_'
'Govern'
'D4'
'Contra'
'functions^_'
'lf_'
'APP_'
'"\\">"_'
'Tar^_'
'Chapter_'
'M2'
';}"_'
'PERSIST'
'514'
'pee'
'chr^_'
'551'
'concept'
'notification\u^_'
'ciones_'
'RUNTIME\u^_'
'datos_'
'netmgt_'
'Quarter'
'night^_'
'concrete^_'
'hab'
'boxes_'
'∅n^_'
'F3'
'jor'
'e0_'
'645'
'224'
'304'
'Clauses_'
'RW'
'528'
'Suit_'
'Flink^_'
'und^_'
'Vo^_'
'Tun'
'Hide_'
'Mic'
'simpl'
'tlo'
'AUDI'
'Bw'
'uit_'
'outside^_'
'Cells^_'
'Facility^_'
'pul'
'ias'
'Enterprise^_'
'kg'
'ETE'
';)^_'
'reactive'
'Vert'
'Harvest^_'
'Ender^_'
'WA^_'
'EDITOR\u^_'
'Vertex'
'EX^_'
'gml^_'
'0x03'
'tup'
'spaces_'
'raise^_'
'WIFI\u^_'
'rega'
'BLANK_'
'kart'
'customer'
'Launch_'
'Enrich'
'suspend^_'
[...]
